#include "ll_aton_NN_interface.h"
#include "ll_aton.h"
#include "ll_aton_ec_trace.h"

#if 0
// Workaround: the tracer does not know the target at this moment
// and cannot call the functions since are used in static code
#define __LL_ATON_LIB_PHYSICAL_TO_VIRTUAL_ADDR(address) LL_Address_Physical2Virtual(address)
#define __LL_ATON_LIB_VIRTUAL_TO_PHYSICAL_ADDR(address) LL_Address_Virtual2Physical(address)
#else
#define __LL_ATON_LIB_PHYSICAL_TO_VIRTUAL_ADDR(address) (address)
#define __LL_ATON_LIB_VIRTUAL_TO_PHYSICAL_ADDR(address) (address)
#endif


mpool_reloc_info_t mpool_reloc_info[] = {
  {"AXISRAM6", "_mem_pool_AXISRAM6_Default", 0x34350000, 1, 0},
  {"AXISRAM5", "_mem_pool_AXISRAM5_Default", 0x342e0000, 1, 0},
  {"AXISRAM4", "_mem_pool_AXISRAM4_Default", 0x34270000, 1, 0},
  {"AXISRAM3", "_mem_pool_AXISRAM3_Default", 0x34200000, 1, 0},
  {"xSPI1", "_mem_pool_xSPI1_Default", 0x90000000, 1, 0},
  {"xSPI2", "_mem_pool_xSPI2_Default", 0x70380000, 1, 0},
  {"AXISRAM3_AXISRAM4_AXISRAM5_AXISRAM6", "_mem_pool_AXISRAM3_AXISRAM4_AXISRAM5_AXISRAM6_Default", 0x34200000, 1, 0},
  {NULL, NULL, 0, 0, 0}
};


static const uint64_t __blob_Quantize_8_1742_requantize_zero[] = {
  0x0000000000000000ULL,
};

static const uint64_t __blob_Conv2D_11_zero_off_2[] = {
  0x0000000000000000ULL,
};

static const uint64_t __blob_Conv2D_11_mul_scale_5[] = {
  0x1B7A123A4C821AA7ULL,0x0D101CF212C52042ULL,0x3E0133121557171FULL,0x133007891AE531E3ULL,
};

static const uint64_t __blob_Conv2D_11_off_bias_8[] = {
  0x000DB4B9000B4140ULL,0x0019DC5F00178C46ULL,0x000B22C300B27DE6ULL,0x004D0CF50088A51AULL,0x000BDB270025FFD8ULL,0x002DA554004DE25BULL,0x001A776EFFDBBFF1ULL,0x0021D3EFFF829866ULL,
};

static const uint64_t __blob_Sigmoid_14_activ_ROM0[] = {
  0xC706050403020100ULL,0x191817161514138FULL,
};

static const uint64_t __blob_Sigmoid_14_activ_ROM1[] = {
  0x0000C00000000000ULL,0x00000000C0000000ULL,0xC00000000000C000ULL,0x0000C00000000000ULL,0x00000000C0000000ULL,0xC80004000000C000ULL,0x0000C08000000000ULL,0x0C000000C7000400ULL,
  0xE70020000000D200ULL,0x0000038044000000ULL,0x7800000019806C00ULL,0x1C606000B0001E00ULL,0xF8002B202400F000ULL,0x0000000033101400ULL,0x3F80000000003F80ULL,0x00003F8000000000ULL,
  0x000000003F800000ULL,0x3F80000000003F80ULL,0x00003F8000000000ULL,0x000000003F800000ULL,
};

static const uint64_t __blob_Conv2D_19_mul_scale_14[] = {
  0x3BDE67F32ED6557EULL,0x3E7B30C8430F4CC7ULL,0x1F1174E9681B3DC7ULL,0x197B256A53E6202FULL,0x59081FF267003296ULL,0x3B164FFA35E0244CULL,0x345837731846469BULL,0x70071BAF28E437D2ULL,
};

static const uint64_t __blob_Conv2D_19_off_bias_17[] = {
  0xFFB22B80FFB236A4ULL,0xFFD7979FFFEFE1BDULL,0xFFE249E3FFBD01EDULL,0xFFA08134FFEC6C6CULL,0xFFF72A4CFF9CC74CULL,0xFFD4A8EF0001B962ULL,0xFFE3C06BFFB9790CULL,0xFFD556DBFFDA3FCAULL,
  0xFFDA6F14FFC5DFB5ULL,0xFFB663B7FFA8101CULL,0xFFCCA7B0FFB1E126ULL,0xFFAFBB4BFFB69336ULL,0xFFA80D0AFFB7A1F5ULL,0xFFEABA180008E1B1ULL,0xFFDBD0440005DA3DULL,0xFFEEBD920000D10AULL,
};

static const uint64_t __blob_Sigmoid_22_activ_ROM0[] = {
  0xC706050403020100ULL,0x161514131211100FULL,
};

static const uint64_t __blob_Sigmoid_22_activ_ROM1[] = {
  0x0000E00000000000ULL,0x00000000E0000000ULL,0xE00000000000E000ULL,0x0000E00000000000ULL,0x00000000E0000000ULL,0xE00000000000E000ULL,0x0000E00000000000ULL,0x04000000E0000000ULL,
  0x048022000000E540ULL,0x00004EC07E000000ULL,0x0E00000035C04C00ULL,0x1FC0000000002100ULL,0x00001FC000000000ULL,0x000000001FC00000ULL,0x1FC0000000001FC0ULL,0x00001FC000000000ULL,
  0x000000001FC00000ULL,0x0000000000001FC0ULL,
};

static const uint64_t __blob_Conv2D_26_zero_off_20[] = {
  0x0000000000000000ULL,
};

static const uint64_t __blob_Conv2D_26_mul_scale_23[] = {
  0x104E148D2FDC1292ULL,0x0F2724E80FBE1D05ULL,0x20FD155112A8232CULL,0x4E242664183F2A26ULL,0x19C217A532D9079FULL,0x10091AAA0BF10B85ULL,0x132B187309241A71ULL,0x0F6920C607D61555ULL,
};

static const uint64_t __blob_Conv2D_26_off_bias_26[] = {
  0x0476E10C048F2265ULL,0x04A113FB046AACC5ULL,0x04AA998E04729F26ULL,0x047D211C0437191FULL,0x04630E4E045C4779ULL,0x046FDBEF0467613FULL,0x047DA95904931ABAULL,0x046A3492048EFBC0ULL,
  0x048569920469F1EBULL,0x047A1553043CBC27ULL,0x047C513E0461F802ULL,0x0469E778044EDE1FULL,0x04609CF50453B09AULL,0x04514A37047F97EEULL,0x047323F7046F4752ULL,0x04B3CCF1044AF102ULL,
};

static const uint64_t __blob_Sigmoid_29_activ_ROM0[] = {
  0x0706050403020100ULL,0x1D1C1BD3CB0A0908ULL,
};

static const uint64_t __blob_Sigmoid_29_activ_ROM1[] = {
  0x0000FC0000000000ULL,0x00000000FC000000ULL,0xFC0000000000FC00ULL,0x0000FC0000000000ULL,0x00000000FC000000ULL,0xFC0000000000FC00ULL,0x0000FC0000000000ULL,0x00000000FC000000ULL,
  0xFC0000000000FC00ULL,0x0000FC0000000000ULL,0x00000000FC000000ULL,0xFA4002000000FC00ULL,0x0000FA3802000000ULL,0x0C000000F8580400ULL,0xDEC81E000000F0A8ULL,0x0000C0183C000000ULL,
  0x2E000000B5A04600ULL,0xECB814000000CFB8ULL,0x0000FA7808000000ULL,0x0000000001880200ULL,0x03F80000000003F8ULL,0x000003F800000000ULL,0x0000000003F80000ULL,
};

static const uint64_t __blob_Conv2D_36_mul_scale_32[] = {
  0x255742A025A1313EULL,0x21B2240820AE24C0ULL,0x22EB3B2122FD4228ULL,0x2495264D25012D8EULL,
};

static const uint64_t __blob_Conv2D_36_off_bias_35[] = {
  0x018E59BD016B1FEEULL,0x00FFF5DA0135B0F8ULL,0x0173D9CD01833CE5ULL,0x017DC0FEFF4CEE82ULL,0x029D538801415919ULL,0x019005B301396F9CULL,0x009892A101F72533ULL,0x023973FD015EA2D1ULL,
};

static const uint64_t __blob_Sigmoid_39_activ_ROM0[] = {
  0x11100FC783020100ULL,
};

static const uint64_t __blob_Sigmoid_39_activ_ROM1[] = {
  0x0000E00000000000ULL,0x00000000E0000000ULL,0xE00000000000E000ULL,0x0000E00000000000ULL,0x0B001333E0E600CDULL,0xE3F00C004000E3D0ULL,0x2000E57802006000ULL,0x6E00C000DD482200ULL,
  0xBFC06E00C000BF80ULL,0xE000C2106C00C000ULL,0x4000E000E2F83E00ULL,0x1BC402B6FF1DDF48ULL,0x00001FC000000000ULL,0x000000001FC00000ULL,
};

static const uint64_t __blob_Conv2D_44_mul_scale_41[] = {
  0x27991A1238DA3158ULL,0x345755E21EEB2E21ULL,0x3B99366D2D842E76ULL,0x198826FF2E452ECEULL,
};

static const uint64_t __blob_Conv2D_44_off_bias_44[] = {
  0x0226F65401D9F565ULL,0x017DEE4B0253FB73ULL,0x01C144BE0234B69AULL,0x0283FFF10279B1DCULL,0x01C330F001272FC1ULL,0x0297E7590211CA2BULL,0x02AD64B50297A205ULL,0x02D545FD01C0A4DAULL,
};

static const uint64_t __blob_Sigmoid_47_activ_ROM0[] = {
  0x11108CC403020100ULL,
};

static const uint64_t __blob_Sigmoid_47_activ_ROM1[] = {
  0x0000F00000000000ULL,0x00000000F0000000ULL,0xF01B004B0089F000ULL,0x0000F01801000000ULL,0xFA002000EFC00200ULL,0xF1ACFA002000F1BCULL,0x4000F7C8EC004000ULL,0x1C000000F558EE00ULL,
  0x8C646F00A000D440ULL,0xF333BC393FB3CEEFULL,0x0D00F800F2601366ULL,0x0FE000000000FAC9ULL,0x00000FE000000000ULL,0x000000000FE00000ULL,
};

static const uint64_t __blob_Conv2D_55_mul_scale_50[] = {
  0x20E81C1C33D31364ULL,0x395626B8289114A9ULL,0x45A420BD302021DCULL,0x58854C1825531D7DULL,0x32F023922B082530ULL,0x5B3764191EC43D13ULL,0x38B41E7C307A7255ULL,0x544B7BA732087704ULL,
};

static const uint64_t __blob_Conv2D_55_off_bias_53[] = {
  0x04060BE603A7EC04ULL,0x034B40FA049B1B27ULL,0x04006898045530B7ULL,0x04976686048F6A81ULL,0x03AEE79E0449F897ULL,0x0403156E03D0F51FULL,0x0443152D04FB5F8DULL,0x03C92689042D4774ULL,
  0x0391C6BE0391F34AULL,0x03BDED32039B9BABULL,0x0309DAD104D64ACDULL,0x045659E103CD4CFDULL,0x03E682D70335F833ULL,0x0347986C0310BFC0ULL,0x0382537003957A38ULL,0x03E70F4803638031ULL,
};

static const uint64_t __blob_Sigmoid_58_activ_ROM0[] = {
  0x000000000000C100ULL,
};

static const uint64_t __blob_Sigmoid_58_activ_ROM1[] = {
  0x004AF80000000000ULL,0xFBC00800F7F9002EULL,0x05D4E26B21BFF945ULL,0xF587BB924427E15CULL,0x0744FD63E7841A05ULL,0x07F000000000FDDBULL,0x000007F000000000ULL,
};

static const uint64_t __blob_Conv2D_63_mul_scale_59[] = {
  0x42EA195A3263143CULL,0x278D39FC282220C8ULL,0x362E2F78116C216EULL,0x3F322A752E2B2CB0ULL,0x4265483A199A2732ULL,0x26A9232B32F929F0ULL,0x2C7B1B1115F417A7ULL,0x25D71E4C301D2C3AULL,
  0x204328801A5C22D7ULL,0x1F7C31892F0A2C49ULL,0x22B8293D2EAD23DFULL,0x30E81F2518DD4863ULL,0x2F1432A53C3A1378ULL,0x33A1355A219B2E3EULL,0x2D8E34C615243A14ULL,0x48D32AD639F83DFBULL,
};

static const uint64_t __blob_Conv2D_63_off_bias_62[] = {
  0x03426E9802DC26FCULL,0x026EEAA8047E1619ULL,0x02A1F0AE00F2F769ULL,0x014BD34EFF9C9EACULL,0x03CF12D2FD84A145ULL,0x00C661C9017C7B42ULL,0x00F29F8C028DAB2FULL,0xFFB5F87C01A30D6FULL,
  0x0137256D02A4494EULL,0x02E1F45D0031D220ULL,0x01FAAB97FF778203ULL,0x023CF33100BCE083ULL,0x01A8848B01DA1DFBULL,0x028E90F001AE1648ULL,0x01F4F9F00079C71CULL,0x014452E001011E1AULL,
  0x0356922E017F3A8BULL,0x02E3478101DEE372ULL,0xFF310ACE025CA583ULL,0x05239EA9026AAC52ULL,0x01D00417013B42A3ULL,0x020C8896033E2CB8ULL,0x03DBC4AEFF547B11ULL,0x012631CD034A8A27ULL,
  0x009D4B9903C86354ULL,0x018D0C5300F43506ULL,0x03395DF20108DF11ULL,0x005C7E8601E69236ULL,0x033DDB7B014B8749ULL,0x01718E5F0071B9EFULL,0x01D7115C017642BCULL,0x00EFCF1B00AB6EF0ULL,
};

static const uint64_t __blob_Sigmoid_66_activ_ROM0[] = {
  0x000000000000C480ULL,
};

static const uint64_t __blob_Sigmoid_66_activ_ROM1[] = {
  0xFFE8C00000000000ULL,0x11A30117C086FF1FULL,0xDF832B530469D2DAULL,0xFCDBDFC630D0040BULL,0x6229FA3DD74B4F3BULL,0xDF464D35FBF0CEE5ULL,0xFF17FFD72C80FE00ULL,0x11C1FF64197E1768ULL,
  0x3F80000000001F79ULL,
};

static const uint64_t __blob_Conv2D_70_mul_scale_68[] = {
  0x510B38C836DA525BULL,0x361C1F72266C4305ULL,0x359A266B4D543B3FULL,0x2B641E923E27471FULL,0x4A21483A2AE92958ULL,0x1F5436AE1FA83E77ULL,0x4841264831223266ULL,0x38441FF51F703408ULL,
  0x10B21D830F1A15D8ULL,0x17061B2A199510E0ULL,0x24AC0D0E0D580DD7ULL,0x11A8133216C311EAULL,0x132E19FC12810A9BULL,0x17103B5F127E0D55ULL,0x0DAB10E71A29171BULL,0x1F0510E80E950F66ULL,
};

static const uint64_t __blob_Conv2D_70_off_bias_71[] = {
  0x012659050239BD7AULL,0x00097896038C6C69ULL,0xFF7A014302DA330DULL,0x00346DE60131BFD5ULL,0xFFAEA7F600EC67CEULL,0x00DA627C00E10D46ULL,0xFFBF8CC8FF8E2127ULL,0xFEDCE2BC01EFC7BBULL,
  0xFF836FCFFF7442BDULL,0xFCC4DF0B008C3FD0ULL,0x033BEF27FFF6BAC4ULL,0x0242997F002DCF5FULL,0x03049E7200B85B8DULL,0xFE6F76660222641DULL,0x0187F5B7FF53F4C7ULL,0xFE542A9D0424B5E7ULL,
  0x0206BAA103CD084EULL,0x0195D52401D3D0C5ULL,0x019DDAA20252744DULL,0x02CE83600140FF0DULL,0x0202A6AF01F2C5EBULL,0x014AA6E101E3711FULL,0x02CDDC0B013AE050ULL,0x02F83B2D020A6CD4ULL,
  0x01D9A53A0237450CULL,0x0075253E014CBD9CULL,0x0056F31701C746E0ULL,0x00141D40FF7D5CC8ULL,0x021CBAEE025BC66AULL,0x01C2675802C4D9A9ULL,0x00EF7BF2031214F5ULL,0x00A6C5FB02253CDAULL,
};

static const uint64_t __blob_Sigmoid_73_activ_ROM0[] = {
  0x000000000BC34100ULL,
};

static const uint64_t __blob_Sigmoid_73_activ_ROM1[] = {
  0x00F1C4C301A20022ULL,0x15C3051FCD0106D3ULL,0xDACE1A39071CDA71ULL,0x0000D9131FDE0222ULL,0x2BBCFD28D6002555ULL,0xAC8D5266F333D29FULL,0xF8E4C1843E00F800ULL,0x5600F555C9DC3872ULL,
  0x292E06CBFF7E8E0BULL,
};

static const uint64_t __blob_Conv2D_79_mul_scale_77[] = {
  0x4C553F4257C93224ULL,0x47BE42DA451879BFULL,0x6F35454356C441CBULL,0x4C1D56F735433776ULL,0x4F9341624FB6600DULL,0x53BD4D90629A4B26ULL,0x555048EB6D8E4841ULL,0x357A44751F9A6EA0ULL,
};

static const uint64_t __blob_Conv2D_79_off_bias_80[] = {
  0x02043F2602D97C02ULL,0x01B46B2B03A6153FULL,0x01D074D402E80CB8ULL,0x01971E7C02E45EFAULL,0x01ABD870014C145DULL,0x045F514400CFDA4DULL,0x030E14F1005F313DULL,0x027E00F901C3D5E6ULL,
  0x004069CC01B3DB16ULL,0x00D55191FF50FE3AULL,0x02B0934105933469ULL,0x01DBA01B028676ACULL,0xFF7746F302C81F12ULL,0x026DCA250290FF9AULL,0x050C9171017B9004ULL,0x0228B02D01FF33F8ULL,
};

static const uint64_t __blob_Sigmoid_82_activ_ROM0[] = {
  0x00000000000000C0ULL,
};

static const uint64_t __blob_Sigmoid_82_activ_ROM1[] = {
  0x0000C00000000000ULL,0x0C8A00B5C25A00BAULL,0xD8241EB9030CCEE8ULL,0xFC61D82322FA0306ULL,0x39ABFDC7C0D9541EULL,0x1CE1104DFF85DF43ULL,
};

static const uint64_t __blob_Conv2D_87_mul_scale_86[] = {
  0x2D3C29B26E6F450AULL,0x25B7365646E339E2ULL,0x2BD439EA3F076D50ULL,0x6B762EE12D352545ULL,0x7A0955754F8953C3ULL,0x3948649C3564682DULL,0x5BE4408C515A3147ULL,0x3267539130C42ED3ULL,
};

static const uint64_t __blob_Conv2D_87_off_bias_89[] = {
  0x009CF053FF95C1E2ULL,0x003BEEC7015D7CDEULL,0x01AA6A8A0107EA61ULL,0x02C95EF602C8736BULL,0x009E514900DA3899ULL,0x025292DFFFE54609ULL,0x00E0F10501F10483ULL,0x003141BF011A8CACULL,
  0xFFDD9DC000A8B70FULL,0xFFAC6774014A87FDULL,0x02034A81FF68BE80ULL,0xFF79F46100804882ULL,0x0013FF26030068E8ULL,0x015101BF00FB18ADULL,0x005B9A4001C7F0E0ULL,0x01E231D8012B31A3ULL,
};

static const uint64_t __blob_Sigmoid_90_activ_ROM0[] = {
  0x000000000000C8C0ULL,
};

static const uint64_t __blob_Sigmoid_90_activ_ROM1[] = {
  0x0000C00000000000ULL,0x00000000C0000000ULL,0xC50001C70000C080ULL,0x028FD994163D0148ULL,0x2C240407E1F82385ULL,0xE55E2E000400E4B7ULL,0xFE39E54D31450208ULL,0x4E00FC00E1DE4000ULL,
  0xDC844F77FBBCDCA2ULL,0xFED1FC922D80FE00ULL,0x01C700000DFE1E5FULL,0x3F80000000003939ULL,
};

static const uint64_t __blob_Conv2D_98_mul_scale_95[] = {
  0x557D252D35931F43ULL,0x19D344A62323302AULL,0x23233505402B2F27ULL,0x38FC2E002CE6443FULL,0x2CF5303D2E8F33A0ULL,0x4448439C333A2350ULL,0x251E406E23C747AFULL,0x23C02F1332AF1DBFULL,
};

static const uint64_t __blob_Conv2D_98_off_bias_98[] = {
  0x02E671AE03B8BF8DULL,0x00CE33BD0185129EULL,0x01E212450211D474ULL,0x044B0C340115C86DULL,0x0144054C00E7F011ULL,0x02395F6F02D91E45ULL,0x02CDB648020B584AULL,0x03C9D78D028A2B3FULL,
  0x037DEDBB0216D712ULL,0x01B85E7502DB3FABULL,0x0363A1B102313A4FULL,0x00E3245F02DA7FA8ULL,0x02C0E3480229B9F6ULL,0x02C7DBE1022B184BULL,0x010C8094022E32F5ULL,0x023F3CD3031A6239ULL,
};

static const uint64_t __blob_Sigmoid_101_activ_ROM0[] = {
  0x00000000000088C0ULL,
};

static const uint64_t __blob_Sigmoid_101_activ_ROM1[] = {
  0x0000C00000000000ULL,0x086B004AC0000000ULL,0xE9F124800200CE96ULL,0x0000CBDD09EA008CULL,0x1333019AC7D00400ULL,0xD285199A0333D0DEULL,0xFD1FD2681A5A03AEULL,0x4E1EFCFDB5D45055ULL,
  0x0E5C16CDFF55BC38ULL,
};

static const uint64_t __blob_Conv2D_106_mul_scale_104[] = {
  0x410B477452655330ULL,0x4ABE45E3490F3F5BULL,0x48B2416052FC3B3CULL,0x6349789E27643C5FULL,0x4F1237174AE42FEFULL,0x4DE54ABE46453081ULL,0x2DB447F2516F52E3ULL,0x2DFC36002A1F4BE6ULL,
};

static const uint64_t __blob_Conv2D_106_off_bias_107[] = {
  0xFFDEC7BDFE55EBE6ULL,0x0042475FFE3BD10AULL,0xFF3609B9FF7B389FULL,0xFFAC77F0FE7B1AECULL,0xFDC1167DFEE3F6B4ULL,0xFE9F4F03FF517F36ULL,0x00F51B23FE8A7E13ULL,0xFEA09176FD7A9917ULL,
  0x004FAE37018DC10CULL,0xFE38DD6300D6FD8EULL,0xFEB7FDB7FFC3045FULL,0xFF03F4F1FE4A57D5ULL,0xFEDC4F1DFD99AFD4ULL,0xFEFF762FFE6A41A1ULL,0xFF0CFB25FDD76107ULL,0x006277660085C9ECULL,
};

static const uint64_t __blob_Sigmoid_109_activ_ROM0[] = {
  0x00000000000088C0ULL,
};

static const uint64_t __blob_Sigmoid_109_activ_ROM1[] = {
  0x0000C00000000000ULL,0x00000000C0000000ULL,0xB06AEFE0FF01C000ULL,0x04A1D2C1105800E9ULL,0x6D550AABF44B3CCFULL,0x0BB2613905E10CDBULL,0xFE4F0B785766F5DAULL,0x0000000029371882ULL,
  0x3F80000000003F80ULL,
};

static const uint64_t __blob_Conv2D_118_mul_scale_113[] = {
  0x6C113A5C27A132B8ULL,0x38085C95393757CCULL,0x479049023E3F24ACULL,0x53A43FC93F7C394CULL,0x3EEC426B207A4422ULL,0x5073405A24CD3DF6ULL,0x358952615EF3490DULL,0x271E36E4240323D3ULL,
  0x4947476E2BA737A8ULL,0x4F7A2FD751C02C40ULL,0x4FD23BDF41D72AC0ULL,0x2BC94FA928882D30ULL,0x53CD3DE14F4660E7ULL,0x683D2C6C362D3C81ULL,0x27AE339526225745ULL,0x43CF6D4643925E0FULL,
};

static const uint64_t __blob_Conv2D_118_off_bias_116[] = {
  0x0215C75D01082F0BULL,0xFE12A6EB00C9000FULL,0xFF3E7A9F006883EDULL,0xFFEE73800112C316ULL,0x0012425500270A97ULL,0xFF7DD3E2FF31B1F1ULL,0x02FA31FE0075FC10ULL,0x01ED65D6002CED1EULL,
  0x023AADB5015182CCULL,0x017C0E84FFFAFFCEULL,0x016A8F2300F940DCULL,0x0151819A00DF5BD3ULL,0xFFF97C060287170EULL,0x008C370301365B2AULL,0x014B06590244DAB0ULL,0x01D45D2001D5857FULL,
  0xFF13408EFFEDC373ULL,0x01819AD7FF000DEAULL,0x0107E7DF00B55875ULL,0x011A4B2E01C19C68ULL,0x00B48F81016402A1ULL,0x003DEDE3031E0D50ULL,0x02306A72FFED8FD3ULL,0x01C145DE003C42DEULL,
  0xFED62E57FFA565E4ULL,0xFF7CCF71018E8B67ULL,0x03090272002D4E2BULL,0xFF5F8228002BF947ULL,0x012FF247006EE0A8ULL,0x00FD03D8013A7B37ULL,0x0072E91000C261EAULL,0x0166DD81005946DDULL,
};

static const uint64_t __blob_Sigmoid_121_activ_ROM0[] = {
  0x000000000000C480ULL,
};

static const uint64_t __blob_Sigmoid_121_activ_ROM1[] = {
  0xFFFBC00000000000ULL,0x1BB601C4C26800A9ULL,0xF264473D074ADC58ULL,0xF800F24549DFFF2BULL,0x431CFB8EECCC6200ULL,0x1809219AFE2CFD7BULL,0x0000304A0A65FF91ULL,0x000000003F800000ULL,
  0x3F80000000003F80ULL,
};

static const uint64_t __blob_Conv2D_126_mul_scale_122[] = {
  0x65013A6B378C3BFBULL,0x31374DEC324E1D9AULL,0x32403F2B562B40EAULL,0x387538D443C13F4AULL,0x2ACC34A5364D20D4ULL,0x39033FD537555E47ULL,0x33AE27DE4CC32E31ULL,0x368A22D0422B378EULL,
  0x3BF81C1C379626E6ULL,0x44512DD52E4238DEULL,0x2542304E2B4647C8ULL,0x504F54BB2D222994ULL,0x4E9E3BCD41B72BBCULL,0x408F46D0349E3FB8ULL,0x423252EB36C934C6ULL,0x3D4E2E1B684B3F4FULL,
  0x3A7F23EC43A14248ULL,0x4503370F6C9D62CAULL,0x33D52E42501D2EFAULL,0x21C33ABA34FA6F4BULL,0x2FD93BE92EC22FEEULL,0x28825AC9518C3C43ULL,0x65344E0D1EBC2D43ULL,0x1D1C53B22A743FD2ULL,
  0x3506431E32613AFFULL,0x37CB47C941E340A2ULL,0x1FC727E843713EAEULL,0x446C1CF85CD226A3ULL,0x42173CE63B334B54ULL,0x2B0C30C833DC3204ULL,0x4B9236AB776036A4ULL,0x3EFE2CE359D838F5ULL,
};

static const uint64_t __blob_Conv2D_126_off_bias_125[] = {
  0x0067504D00A9C263ULL,0x003C9E8A010BF79FULL,0x00E71161020C5727ULL,0x0238FF1701094CF8ULL,0x00DAA3650087EFBCULL,0x00B30ABB00A354FDULL,0x025E6DB200763506ULL,0x0002AFE200A7F824ULL,
  0x0050C1A900445E87ULL,0x01054D85000CAA2DULL,0x00E602C90046EFA7ULL,0x006CFF0D01631D8FULL,0x0222DFF0015EDC56ULL,0x00567BF701FE7A75ULL,0x004894D202569694ULL,0x001A1FB901D612BEULL,
  0x004911B1013130DBULL,0x0043DB9C01531D99ULL,0x0083BD1201C3FFD1ULL,0x00E85D9B01DB6454ULL,0x00E315EE018EB344ULL,0x01C48EC602045F79ULL,0x016C018001E093DCULL,0xFB72136900555137ULL,
  0x002A0EBF00EEE690ULL,0x004F1F3C01BCCB4AULL,0x0039008C00EEE06EULL,0x01943733FFEFA310ULL,0x0190D712020F6D3DULL,0xFFC41EEBFFF87B9CULL,0xFFAED11D00C404C2ULL,0xFFDA074D000C147FULL,
  0x0275269B007CF5B8ULL,0x00DD09D401858B3DULL,0x00ADCC9901740CEBULL,0x0204BE54FFC17CDEULL,0x01DB66FFFFFDDBF7ULL,0x010A158CFFF70581ULL,0x007F92B800A2E441ULL,0x018AAB0E015B2E3BULL,
  0x014EF1B301115679ULL,0x01F5E867FFE4BA90ULL,0xFFFA5C5B0143602CULL,0x0170E68D01EECC9FULL,0x026E418100FC032BULL,0x018E6DE3FFF01CB3ULL,0x011DAB1502FAD4AFULL,0x01E43AE4009711F8ULL,
  0xFFF5B25E019D958FULL,0x00E1396000598A43ULL,0x001F4AC9014FDD9BULL,0x00C7FD87001768F1ULL,0x0050C6CD01DA63A1ULL,0x00FAAE53008C76A5ULL,0x00F159CC0216849CULL,0x0134D8C70170BB6AULL,
  0x00A1F4DE01BF9767ULL,0x0081E9CB020666ECULL,0x0017782300FD3DD2ULL,0x007826E900FD53B4ULL,0x012BF6B80172F839ULL,0x0153AAA000B31356ULL,0x01A5453700FE3E6BULL,0x00F618FF024957C5ULL,
};

static const uint64_t __blob_Sigmoid_129_activ_ROM0[] = {
  0x000000000000C480ULL,
};

static const uint64_t __blob_Sigmoid_129_activ_ROM1[] = {
  0xFFDFC00000000000ULL,0x11E90117BFC5FE7AULL,0xE1172D5504A3D368ULL,0xFCABE147321F03EBULL,0x606BFA46D9444FABULL,0xE440490AFC2DD21EULL,0xFF4A0F3D1F83FEB2ULL,0x1BC3FF01208F12ABULL,
  0x3F80000000000F6AULL,
};

static const uint64_t __blob_Conv2D_133_mul_scale_131[] = {
  0x1F3118DD1D481F16ULL,0x242D1CC226BA22D1ULL,0x3C691F9331823040ULL,0x231D211820811CB5ULL,0x2C721D082AD225AAULL,0x221B16F917271C4CULL,0x1BB02E36244F1DBFULL,0x1B7B32EC1E6124ABULL,
  0x21D621EA20CE14F3ULL,0x1FC649C42FE51653ULL,0x510A1E4824262A7CULL,0x20B124CB1DA92A25ULL,0x1A22216221F5303DULL,0x3F14207B12531B91ULL,0x25321B1E5B141252ULL,0x4B67219E1E363428ULL,
  0x1294145F10C90D40ULL,0x0FB013340CE10CA5ULL,0x112512EF0B091642ULL,0x0D7914F30EA813B0ULL,0x180A085009C10D31ULL,0x0A2B15F711170E27ULL,0x411013410CA10CD2ULL,0x0C360F81148E0BB0ULL,
  0x0B4E1AAF10640B63ULL,0x202C167113490BE5ULL,0x114D0E131F581C8BULL,0x0CED0DB90CBC0E6BULL,0x1299175E0A3620CDULL,0x0FAA0A9E10DD13B8ULL,0x129B18531B2F23D9ULL,0x08550ABB160F1072ULL,
};

static const uint64_t __blob_Conv2D_133_off_bias_134[] = {
  0x02DDA57A02AE1DFEULL,0x022C6432022816C6ULL,0x0279197600ECCD65ULL,0x0250B5A102BB8EE3ULL,0x020B858C010BFD1FULL,0x0175B17B02D17398ULL,0x0348748702510A53ULL,0x026B90BF02F7902BULL,
  0x0145C8F2022421E3ULL,0x0242FA700282CFF0ULL,0x02771F88026CA79CULL,0x02FA927D039F8A7BULL,0x025923D902E6BF2DULL,0x01DDF315021BACEBULL,0x02668AB60195CA01ULL,0x01B69F4802C8A8ACULL,
  0x02AD8FEF02F912F4ULL,0x029A7654027C922DULL,0x026228EF02DC64E9ULL,0x036E61CB029A3F74ULL,0x025CF57C025D91C0ULL,0x0313E91801FEF99EULL,0x02E1CE73034CEB0CULL,0x02E55352019B957BULL,
  0x025045AA027BC6CCULL,0x02F4555501C51CC6ULL,0x0403761402650A5AULL,0x02C4A87C0236B09AULL,0x01D1EBDE02BB1A54ULL,0x02079D27023F3DFDULL,0x02F3979E0340C095ULL,0x01933F2F0353860CULL,
  0x02D1802A03389FACULL,0x0228FEE402748394ULL,0x027C57160280D7E8ULL,0x02A916F7024F223CULL,0x02EA414F0295F395ULL,0x02407CC902FE6194ULL,0x02B97FDB0246D8A4ULL,0x031C03B602E5AEAFULL,
  0x038EA203033160D3ULL,0x020C46D20316A17EULL,0x02D5D511025F9800ULL,0x02C0F18D030B7B6FULL,0x027E38690335A6ABULL,0x0097DEAD01D184ABULL,0x02D40A5502AC6D06ULL,0x03161CEC02E39975ULL,
  0x025FD76102DDC39EULL,0x02AAECD4021B07E6ULL,0x02800E60033653D0ULL,0x01B6617A024D5662ULL,0x02EC9E46029CE9CFULL,0x02FD60C90303E789ULL,0x02E3116302E12863ULL,0x030C2E37038B2247ULL,
  0x02AA074002B0B9ADULL,0x027FF63A03079A7AULL,0x0200323F028E980DULL,0x028282B702AD6129ULL,0x0269400A0262A055ULL,0x025601190246E665ULL,0x0276D568033AB70DULL,0x033A82A7030DE85CULL,
};

static const uint64_t __blob_Sigmoid_136_activ_ROM0[] = {
  0x000000000000C240ULL,
};

static const uint64_t __blob_Sigmoid_136_activ_ROM1[] = {
  0x0056E00000000000ULL,0x013204FDE0EF00DCULL,0xE676F7380ED5E11AULL,0xF0C3C6D713D701ECULL,0x2472F8E4813B44ABULL,0xFF040AC7FE39C139ULL,0x00001FC000000000ULL,0x000000001FC00000ULL,
};

static const uint64_t __blob_Conv2D_142_mul_scale_140[] = {
  0x5BC61EAC239D22EAULL,0x267627F31CAE2883ULL,0x4F03204A25692D98ULL,0x1D49220B637C2B3FULL,0x23A719512DB62BACULL,0x11B21DFB19973C72ULL,0x432C4D16221826A4ULL,0x31BF3BC723AA2672ULL,
  0x2DCD3EBC1B501EECULL,0x3B2E1ADF277E447DULL,0x23931FD2348824EDULL,0x21D02A152CE827DFULL,0x253C3FB620851E17ULL,0x217F371830441A92ULL,0x313823072E26250CULL,0x157D24D5245A5BEFULL,
};

static const uint64_t __blob_Conv2D_142_off_bias_143[] = {
  0xFE213A8BFF333071ULL,0xFF260F0F0207F1A1ULL,0x00FAA210FF79BEAFULL,0x0144037900036255ULL,0xFF43AB40FEAAEE55ULL,0xFFF28D7FFF53C74FULL,0xFFC7D7FD0074ABEEULL,0x00799E6A00CAB430ULL,
  0xFCB73811FE700CB8ULL,0xFDC4FAA800E21857ULL,0xFFA6DA76FFDDDC57ULL,0x02637F6BFF6CC705ULL,0x000D1040FF3352B2ULL,0xFE6E2572FF9C66D9ULL,0xFFAF303800B22DA1ULL,0xFD46053300405CE0ULL,
  0x00E653EE0022A932ULL,0xFED2DF6000CF6B37ULL,0xFF1863DBFE86F6DDULL,0xFFE7E1D9001684FDULL,0x00942B9BFF915EE4ULL,0xFE564C8CFEEE0922ULL,0xFF79210501020B0FULL,0xFF5D14A6FEC5B29EULL,
  0x00DC9E060028C675ULL,0xFF935FBDFF9D96E6ULL,0xFEDF4DB400E7D5ADULL,0xFFBBDA5B007B76B3ULL,0x02F15578FF322AB8ULL,0x0115FD2D000DEF31ULL,0x010981F9000D511CULL,0x01C04F81FE3052A8ULL,
};

static const uint64_t __blob_Sigmoid_145_activ_ROM0[] = {
  0x00000000000000C0ULL,
};

static const uint64_t __blob_Sigmoid_145_activ_ROM1[] = {
  0x0042B95310370092ULL,0x2454022696A806CAULL,0xF14640B50546D103ULL,0xFCA6F02A42F2FC66ULL,0x10CDFF4A03123831ULL,0x7F00000000004D07ULL,
};

static const uint64_t __blob_Conv2D_150_mul_scale_149[] = {
  0x1B3B1C38139F1F3BULL,0x10E81A2B10C30F9BULL,0x1D320CF41B1C125DULL,0x10DF1CE80B352091ULL,0x1DD1185A0FD5126AULL,0x3E22103613243C5BULL,0x1B981AE920F32548ULL,0x165A1563185D1EECULL,
  0x1B051FB00FFF280DULL,0x1C1A113019611513ULL,0x1C5619170DCA1A6BULL,0x29B7132717C717BFULL,0x36620E3710E62C79ULL,0x1A9B15DC158F1243ULL,0x18CD192540BE1703ULL,0x133E196D16A82075ULL,
};

static const uint64_t __blob_Conv2D_150_off_bias_152[] = {
  0x011227E10246A4AEULL,0x02458EA801741C15ULL,0x0236BC9B02634B6CULL,0x0204365602EF6F95ULL,0x00E9FF7401387367ULL,0x0142FC92026ABEA9ULL,0x01FEEBC601589DAFULL,0x01E820AF0157575FULL,
  0x022AC88401DAAD98ULL,0x0194267E01C46229ULL,0x025A031F014379E6ULL,0x016736F001455ED0ULL,0x011CCCB100E16A69ULL,0x0127514501185C90ULL,0x016AB3B2015F4236ULL,0x01A1F179021B1C8BULL,
  0x02CB6C5A0141AB0AULL,0x023CDAC3021140BFULL,0x026F36B701B0A140ULL,0x01E33DA2029C36A4ULL,0x01BA1D0C0140E1C9ULL,0x0213534901E39086ULL,0x0132AF820128E653ULL,0x0146451E02BDC85FULL,
  0x01E93203008EA4F1ULL,0x00FB4E85018C45BDULL,0x019E6FE302294349ULL,0x01314B3601B3E213ULL,0x006713F801AE650EULL,0x01B8580001AC7A3EULL,0x00F1502401AC265FULL,0x024D49150191929CULL,
};

static const uint64_t __blob_Sigmoid_153_activ_ROM0[] = {
  0x00000000000000C0ULL,
};

static const uint64_t __blob_Sigmoid_153_activ_ROM1[] = {
  0x0000C00000000000ULL,0x00920000C0000000ULL,0xCA3E09660279C20EULL,0xF84ECA5E0B7B07CCULL,0x1D4FFD848BEF4937ULL,0x1E90094EFF59E84DULL,
};

static const uint64_t __blob_Conv2D_161_mul_scale_158[] = {
  0x0EE720521AA22FD0ULL,0x2180389A2DDF25ACULL,0x265631B21FCA0B01ULL,0x31942FB628B12347ULL,0x3367302D23C02A1BULL,0x2CF72CC91F5F194CULL,0x331326002D782CF4ULL,0x29BE1F753F302786ULL,
  0x30312A2D206631EBULL,0x2EA536A722472643ULL,0x2BD6291B2C4C4380ULL,0x165C194C35771EE8ULL,0x205622BB226F25E6ULL,0x25CF38A121602372ULL,0x25A85C9534BC25CEULL,0x23791D3238D0360BULL,
};

static const uint64_t __blob_Conv2D_161_off_bias_161[] = {
  0x00335E6AFF51F599ULL,0x00E48B5CFF066645ULL,0xFFAB16B500BED00BULL,0xFF593F63FFE1FA4AULL,0x000A8F90014FE7A0ULL,0xFF4E2C93FFE3E78CULL,0xFFA07249FFE76641ULL,0xFF51B46A00B19A5EULL,
  0xFEDD23A7FF75FB9EULL,0xFEBA3ED5FFD154CAULL,0xFFBE92B3FF32DA2DULL,0x0031B2FAFF0D254DULL,0xFFACBF3D003A5F95ULL,0xFFF8D6B700B78D82ULL,0x003D438FFFE6CB87ULL,0x002DFF660089E39FULL,
  0xFF826623FEED775AULL,0x000C4E3FFFD4BB5FULL,0xFF119917FE4ED552ULL,0xFF7C3933FFBA67A7ULL,0xFF8700F9FEDC2A7BULL,0xFF5885AA00DE390EULL,0xFF1C3EDE00273A18ULL,0x0011E15CFFE19DDFULL,
  0xFFBCFD6DFFA34136ULL,0xFF7F75A900939074ULL,0xFF87D4BA00321416ULL,0xFFD11072FE5A9618ULL,0xFE5C5FAEFF88995BULL,0xFFE26D19FEFC3A01ULL,0xFF4D7553005DAFAFULL,0x0061E917FEF9ECEFULL,
};

static const uint64_t __blob_Sigmoid_164_activ_ROM0[] = {
  0x00000000000000C0ULL,
};

static const uint64_t __blob_Sigmoid_164_activ_ROM1[] = {
  0xFFEAC00000000000ULL,0x23EE023FC115FF6AULL,0x007C53E10780E53DULL,0xFD7CFF965388F895ULL,0x0E81FF4C180A2767ULL,0x3F80000000002D04ULL,
};

static const uint64_t __blob_Conv2D_169_mul_scale_167[] = {
  0x20F835232916207BULL,0x20421A3926CD1FDBULL,0x658C209D29591C5FULL,0x298C20B8200525CDULL,0x231A2C46232527D4ULL,0x23D71A702E5F2502ULL,0x245C1BF42B452DFFULL,0x24D3228B2BE22354ULL,
  0x179023BE1ED62804ULL,0x13171C5235DC2A54ULL,0x23231F5C3D6C2829ULL,0x2DAC0D281BD23BA1ULL,0x248D34111B6C1D83ULL,0x35EC1B5F228422EFULL,0x28232B0D251D1D15ULL,0x1F8A220F2EDB24F3ULL,
};

static const uint64_t __blob_Conv2D_169_off_bias_170[] = {
  0xFFDF0E29002A5430ULL,0xFFE969A1009C6712ULL,0xFFBB57B7006C96FDULL,0xFFBC628F003D14CEULL,0xFF910CF0FDBCE782ULL,0xFF06F40500993681ULL,0xFE77C204FFC3CB0BULL,0x004BE4120033D2A3ULL,
  0xFEA73A3EFF8500FCULL,0xFEB4EF4FFF7E1626ULL,0xFFBFDF8B009C1D8DULL,0x0070088B00A742CEULL,0x0013F83A00A6B659ULL,0x00288E06FED442C8ULL,0xFF81AD8600703337ULL,0xFF24861AFF8E376DULL,
  0x0075625CFEBE8196ULL,0x010856180117DCFBULL,0xFFAEA57FFF3EFE51ULL,0x00BBF61D0113F1DBULL,0xFFBAB602FFD53212ULL,0x002C427E0101B158ULL,0x008942F501310F29ULL,0x0086387BFFF6CC1EULL,
  0xFFF2B03D009165FAULL,0x0036C9B7FEAF44F3ULL,0xFDF916DCFFB34AE0ULL,0xFF0281A7007B3F4BULL,0xFE30586AFFAEC20CULL,0xFFC56CA1FF57C05EULL,0xFE6FE7AE00795621ULL,0x007695410110F1C1ULL,
};

static const uint64_t __blob_Sigmoid_172_activ_ROM0[] = {
  0x000000000000C8C0ULL,
};

static const uint64_t __blob_Sigmoid_172_activ_ROM1[] = {
  0x0000C00000000000ULL,0x00000000C0000000ULL,0xC00000000000C000ULL,0x0148C3C802000000ULL,0x46000800CEBD111FULL,0xF30D68EF0FAEE924ULL,0xF249F29A7055F955ULL,0x34CDFBBCF2AE7D25ULL,
  0x2FB70FE0FF0415AFULL,0x00003F8000000000ULL,0x000000003F800000ULL,0x3F80000000003F80ULL,
};

static const uint64_t __blob_Conv2D_181_mul_scale_176[] = {
  0x36F2142B156011AFULL,0x203A3A53163D38E1ULL,0x27DD254123F93AFDULL,0x3CFA3A282AD8248FULL,0x19932AB242DB4B33ULL,0x1FC61D7E297720E4ULL,0x22AF32B2231F12A3ULL,0x249739262B4627A6ULL,
  0x211133732E9E50E6ULL,0x23B11AFE2A3924FBULL,0x213E1C1E339C4346ULL,0x27522B7326702100ULL,0x33832BD625D656C0ULL,0x315E33A734762D5AULL,0x23A826DC22832D8AULL,0x30F72BA42285328BULL,
  0x2BBD22DE37313242ULL,0x381224012EA82DDEULL,0x4411366428A23FCAULL,0x24B4330442D6278FULL,0x2F6F3D423D571F68ULL,0x3487290B2D1214B6ULL,0x29371C841DB05406ULL,0x217B27001CE21ABCULL,
  0x1A7F2BA547A62366ULL,0x39542E2426032251ULL,0x2D4B250C1B621F83ULL,0x1EBC23D5493D5900ULL,0x3B662CCA3E552D13ULL,0x2DA126A623FB1F45ULL,0x29AC275526594935ULL,0x2BA81BAB3F0631B8ULL,
};

static const uint64_t __blob_Conv2D_181_off_bias_179[] = {
  0x008C91A20096745DULL,0xFFC92BD9014302B3ULL,0x00FEB384006B3B30ULL,0x008875DE00CB162BULL,0x00A37D28FF700031ULL,0x000DB604003EF043ULL,0xFFB4363A0094067EULL,0x000B6DE9FF74FD1FULL,
  0x0015B6C0FED12255ULL,0x005E70A2FF64BFACULL,0xFF613A22FF657CF0ULL,0x000F9E67006FAD3BULL,0x0022E78401318DA1ULL,0x0059F405FFF3B03AULL,0x007D6247FF7BF0FEULL,0x00513B5AFEFB8D8AULL,
  0xFDEEFCDF012A8548ULL,0x00EE34B7FF774544ULL,0x00A1B8C70054FAFCULL,0x00B6C3FD00C868ACULL,0x0029A1D2FFDB3CA5ULL,0x004AD77B00FF733CULL,0x002C3F83007B242FULL,0x002C21940038F0C6ULL,
  0x00F29C37FFDAD066ULL,0xFEFD1BE2FF80C057ULL,0x002B9896006E1063ULL,0x005687E9FFBDFE22ULL,0x002DB902FF6562F5ULL,0x00E3788B002331A0ULL,0x0003557400CEC405ULL,0xFF6A96890025853FULL,
  0x0076A452FF940D71ULL,0x00E8257B0053F3F0ULL,0x000684D8FF8381C2ULL,0xFFB4061900B0D3F1ULL,0x012A77B800210E55ULL,0x00CAF878FFE434DEULL,0xFDD77A8A011B1B8DULL,0x0003E3DEFDDF0BCEULL,
  0xFF959E780147E2C8ULL,0xFF78208300DE0749ULL,0xFFB286170048FEF2ULL,0xFFB87365FEE104E8ULL,0x00FB6A430010A2E6ULL,0xFFAD499100EE4B8FULL,0x00620619007D5787ULL,0x004C10F3FFF91AD4ULL,
  0x00BB98A00056E800ULL,0x00E03E2201382A56ULL,0x009E706E004918F9ULL,0xFFFDE201FF721C4DULL,0x017B029900552EF1ULL,0x01069D5800F24DAFULL,0x00DA4AC000373A5AULL,0x00AFFD610131F102ULL,
  0xFE841033FEE2CDCBULL,0xFF6767F7FF90FD04ULL,0x00443AAF0043D3CEULL,0x005CAE520027AF82ULL,0x00ADA611001D6BB9ULL,0xFF86140DFF6E8DE9ULL,0x012BCFB4FFC4962DULL,0x000BC71D004C9E5AULL,
};

static const uint64_t __blob_Sigmoid_184_activ_ROM0[] = {
  0x0706050403020100ULL,0x1211100F0E0D8908ULL,
};

static const uint64_t __blob_Sigmoid_184_activ_ROM1[] = {
  0x0000C00000000000ULL,0x00000000C0000000ULL,0x8583E525FCF4C000ULL,0x0265C9D903690047ULL,0x28000821E075113DULL,0xF8DB29DF08A3F782ULL,0x0000F8502A0BFBF9ULL,0x7000E00002201C00ULL,
  0xB8F07C00E000CB10ULL,0xFAAB140010000000ULL,0x0C06FE9F03F822ABULL,0x273009E4FF0124D0ULL,0x00003F8000000000ULL,0x000000003F800000ULL,0x0000000000003F80ULL,
};

static const uint64_t __blob_Conv2D_189_mul_scale_185[] = {
  0x32B11FCE2CAD32FAULL,0x37133DE03D2D2050ULL,0x214329592DB539C1ULL,0x375726CA289C382DULL,0x3AB61EE427A643C1ULL,0x354B234520C9196BULL,0x26982FB92623302CULL,0x275521B429E4430FULL,
  0x334939621FCD37D6ULL,0x250C3F8D25BA28BFULL,0x3A2C24352DDF2CDBULL,0x2B0F2BEC2B952993ULL,0x2E93272033242567ULL,0x331D1FA8323E2A2CULL,0x23D31F8F3B973850ULL,0x2E893AEA39AB3F06ULL,
  0x3A7F294B23CC39D7ULL,0x478B2571391F33BAULL,0x2EF63A6F29FC3DA1ULL,0x2EDF251E37A22BC5ULL,0x26232CD82DFE2C87ULL,0x2BB828F72A03366AULL,0x3AC327A92EB12A5DULL,0x296A26FA2B9B3880ULL,
  0x31032BB8310A2C2BULL,0x2C8239824C612D03ULL,0x35DF2A75339F391FULL,0x360738E4360D231EULL,0x29902B4B45EB2CE5ULL,0x3341214528CD226AULL,0x2D09265525552FDAULL,0x37632CDE32E42A73ULL,
  0x404029FD25B228A2ULL,0x32A22A8D3C1733FBULL,0x42202EA5281C305EULL,0x691C1FD93B0C30C4ULL,0x2C88313435133839ULL,0x21D92E282AC044EAULL,0x2EED2D525C2D2D06ULL,0x39672A0222493FB7ULL,
  0x360C3AFC2861337DULL,0x3CC029A6475E2856ULL,0x29A2362033AE228AULL,0x4AE32D06287221D6ULL,0x36591FD7526325C7ULL,0x2C3D28F13C223005ULL,0x23D62A3E2206246FULL,0x328A2996233141A3ULL,
  0x3D622A812D933201ULL,0x34EF2D07327B47E2ULL,0x395022232C8F2ACEULL,0x2AB31FF22EA83BDAULL,0x20EF33E4330528AAULL,0x27722DF2241A31AEULL,0x2EE027B02E292607ULL,0x5DBD42C21ECE2BEAULL,
  0x343532FA1BC4254DULL,0x34C124FE344A2356ULL,0x23001F2A2A642547ULL,0x2159463B21524497ULL,0x1E362FA227732611ULL,0x3AB32B662F8F1E59ULL,0x293623CB24072D80ULL,0x242E2FC8224A29ACULL,
};

static const uint64_t __blob_Conv2D_189_off_bias_188[] = {
  0x00FCA650018496A1ULL,0x009B66F601041739ULL,0x00D9BD2B011777D4ULL,0x01070742FFBFFC53ULL,0x0078FB7B01188CFDULL,0x00D81C1F00DD6A35ULL,0x0177870B013FB932ULL,0x01BDD7F2016109B0ULL,
  0x0125336C01791EBEULL,0x00846D7501BE9D26ULL,0x01133EEC0213D747ULL,0x012D6B08009148A1ULL,0x00B833AE009ABC6DULL,0x0157037600E29C16ULL,0x01B6793A009AC627ULL,0x01DD2F60019FB193ULL,
  0x0128252500C479C7ULL,0x013367DA00BB7652ULL,0x00E9A6F500CF9DE9ULL,0x00666976FFF0650CULL,0x02B7BF810139F225ULL,0x009F4EFD018CD598ULL,0x00F26B0A00E1BE9DULL,0x013E2F12014BAE76ULL,
  0x0116224F00D47594ULL,0x00CABD6B009B4E63ULL,0x014B196200BAF13CULL,0x010E952901CEAD50ULL,0x0164DE190162E16BULL,0x0167B474015052FEULL,0x00D0CAAF00A93368ULL,0x011AD82601190011ULL,
  0x01BA03D600BCF534ULL,0x014073B101775364ULL,0x0199446400959E6DULL,0x00EC6908018DE00DULL,0x014061BD01A4B4B5ULL,0x012FBAFA008F3EBFULL,0x011DA80A00B6DE1BULL,0x01A75E8D013139ADULL,
  0x016E325C011FD9EDULL,0x00F0461F0161AA09ULL,0x01BE976000BD1EB1ULL,0x013C2BD400D04846ULL,0x01036EB101043580ULL,0x00FC5D5A0121FB72ULL,0x0173020F010C52B4ULL,0x014F37290120A639ULL,
  0x0148513F02111FABULL,0x00CD021200FD009BULL,0x00E8974B011BAD17ULL,0x0180884E010DE5BEULL,0x015082440097C75CULL,0x014EDE3C010573BEULL,0x01358FD7012CE815ULL,0x011457AF01749FF2ULL,
  0x011633B00099CDDFULL,0x01898943015D6D7FULL,0x00778A0701B5C609ULL,0x01106726011C075AULL,0x01730DB5014F092FULL,0x013CB7BE00A97890ULL,0x00D7ABC901E53BCBULL,0x01B5301F01415AC1ULL,
  0x0118F248016FA0F0ULL,0x00A1321301143D5AULL,0x009E5BAC011DB4B8ULL,0x0151849B004C1C6FULL,0x00ECCD3301396388ULL,0x00F5F33A012051C9ULL,0x013DFE94015342A8ULL,0x015DACFA010A47F5ULL,
  0x00E317DD0110B687ULL,0x00BA980901595347ULL,0x01E7BA8700797F6DULL,0x00B975F901B4BCEAULL,0x0035A89B017CC160ULL,0x0144C2DF00CACAA4ULL,0x0107B74E0149DD8FULL,0x010DA0DD00D36333ULL,
  0x008DAF8400D6D670ULL,0x00C5DE3501165257ULL,0x0106FA8C010F81BAULL,0x01845368010134D7ULL,0x007765AB01439E08ULL,0x0165681D00004884ULL,0x00A14F0A0199DC80ULL,0x00D168FF014FC49AULL,
  0x008F06FB00CA6060ULL,0x010322E40082F84AULL,0x00A645DD00AB3B57ULL,0x00995B3100C1B23EULL,0x0160574400D59A90ULL,0x00FE9460012E975BULL,0x011B7CA5015180E8ULL,0xFFF772F7003E4727ULL,
  0x018BEABF00C7671AULL,0x0129ED8501361194ULL,0x00BCD43900F1950AULL,0x0161854B016A4478ULL,0x0079B52900BD0433ULL,0x013F11B001E6E689ULL,0x018E365A00F0D702ULL,0x0096FD58015C1118ULL,
  0x007BDE5101678B18ULL,0x01E9C35100CC4D24ULL,0x0081892B002B3831ULL,0x016B580100B276FBULL,0x01854E27018E9CA0ULL,0x01403DEB002BDCAFULL,0x00E4DEFE014461BCULL,0x01203A6001084EDFULL,
  0x01DC2A6A00B289D3ULL,0x011BFF1EFFD06081ULL,0x01019B32018C1CD8ULL,0x00C9B35E0147EF9AULL,0x0134CAEC0192ABB0ULL,0x01DA4A5E01ADEA85ULL,0x011940DD008AC5D8ULL,0x01051659009D9E5EULL,
  0x00E311B1011DFC31ULL,0x0236ECF100EA5816ULL,0x016C1B5501605E1DULL,0x00C0D125017FDB9BULL,0x00E3B9C80105ED3BULL,0x01021C84013D81A2ULL,0x01184A0B00F31C95ULL,0x00EC958D0156B6BCULL,
};

static const uint64_t __blob_Sigmoid_192_activ_ROM0[] = {
  0x000000000000C480ULL,
};

static const uint64_t __blob_Sigmoid_192_activ_ROM1[] = {
  0x0000E00000000000ULL,0x034D0089E0000000ULL,0xE420096302D9E271ULL,0x00C7E4A10C771044ULL,0x7084EF38D90C32C3ULL,0xF2632AF1FAD9BE08ULL,0x0000118A0B11FEEFULL,0x000000001FC00000ULL,
  0x1FC0000000001FC0ULL,
};

static const uint64_t __blob_Conv2D_196_mul_scale_194[] = {
  0x27082CDB21612B07ULL,0x2813248F1BFF1DC5ULL,0x206E1BFD32F7243AULL,0x26831C8B203E2212ULL,0x1C001BDD255E2917ULL,0x22A8313F19072EBDULL,0x23B524132472365FULL,0x22B91E2A331723CAULL,
  0x25EC350B1E732880ULL,0x2FF92A9720AB3022ULL,0x26BB42281C421CDCULL,0x2A961E8822701C04ULL,0x243721991C452382ULL,0x38ED23C018F820EEULL,0x238423262FA7326AULL,0x3BC72732253E237CULL,
  0x1D9A1C6D26A8386CULL,0x32C61D951F392DA9ULL,0x296121B1273924A2ULL,0x1CE62628232A1EEBULL,0x24082336290F1973ULL,0x201627AC2EB323DBULL,0x256424052D5F2CCDULL,0x1D49250F1A8F224BULL,
  0x1C243D1120B81DF7ULL,0x27CB2A9330EB1E11ULL,0x2A9121E824D41FF2ULL,0x1B6217F1376E264AULL,0x21BF29C421412695ULL,0x28B5227721FB2345ULL,0x29AF2D8C22E9293BULL,0x2FDC1DB21ACC348CULL,
  0x12601B91190714B6ULL,0x18C70B0720A51C5BULL,0x1BF415CA1D0916DAULL,0x11F01533167D1DA4ULL,0x1BF0141E20181C2EULL,0x1528120D1CDF2210ULL,0x0B111ED8143C1A9FULL,0x26FD152C0FFC0AE0ULL,
  0x0FAB1260164D100DULL,0x2014128918991D0FULL,0x0FAF0F650996176BULL,0x119511752114114CULL,0x0C4B0F9D168414B8ULL,0x10C7105A0C0918D9ULL,0x1CC316FE25F815D3ULL,0x165D13BB15D618F7ULL,
  0x0F6728D41DA11550ULL,0x14FF15C714E7206BULL,0x1B1714A019AA1F8BULL,0x12C3104A18362232ULL,0x11A60F5C154E11D6ULL,0x18141C3C0A6313D9ULL,0x17C61B511A630DAAULL,0x14D014201721121AULL,
  0x1649153B1C991B62ULL,0x1F2A21370EC812F9ULL,0x1CD40FCF1C061A03ULL,0x15231AE31990153FULL,0x1CFC16BF10E71CFDULL,0x10E627A205DE154FULL,0x0E2A21790D191BA6ULL,0x2C0E145114051347ULL,
};

static const uint64_t __blob_Conv2D_196_off_bias_197[] = {
  0xFFD57A47FF6D7621ULL,0x00123811FF93EA9EULL,0xFFE2FB0CFFEA1881ULL,0xFF70C515FFE1654DULL,0xFFA737EE000DE07FULL,0x0048E7F5FFAC4D6FULL,0x0032ED0AFFF19140ULL,0xFF89F5F0FFDFB57AULL,
  0xFFF7DD1CFFEE11DFULL,0x0010A17CFFF5B818ULL,0xFFC3C9DF00609750ULL,0xFFB0AC1B0005C435ULL,0x00306781002796FEULL,0xFFD73118FFD6CBFAULL,0xFFE34CE1FFF0B484ULL,0xFFC64568FFD76694ULL,
  0x002700280029D531ULL,0x0047B727FFFDE840ULL,0xFF95ADD4FF9F25D5ULL,0xFFB0349BFF81D63FULL,0x000F44AD002B4C89ULL,0xFFEE12390017C76AULL,0xFFBD1AF7FFB32B27ULL,0x0010199B002376A5ULL,
  0xFFE27A66FFBE1BADULL,0x002CE7AA0010AEA3ULL,0x0017F1FE001058BBULL,0xFFD64AB0FFB0DDF0ULL,0x0016259B000069B4ULL,0xFFFF8AE7FFC5E7F5ULL,0x0063ED9BFF94A752ULL,0x003C1E0C00007C68ULL,
  0xFFF58657FFCA8987ULL,0x0044ADF30001C18EULL,0xFFBA9ECAFFFFAB38ULL,0xFFA6311FFFB22584ULL,0xFFC7F675FFCAA8F6ULL,0xFFC88E8600445835ULL,0x000AA929FFF05E68ULL,0x002CF44AFFF0866FULL,
  0x0036642BFFEE5E9EULL,0xFFF36423002C9C40ULL,0x004CD31BFFBE54EBULL,0xFFAB0037FFBFE963ULL,0xFFC3C081001D5B9CULL,0x00483B69FFC599C9ULL,0x00130FF0000072F0ULL,0xFFF6CAA1FFE4DF35ULL,
  0xFFF1A347FFDC06CDULL,0x00016B8700430FF9ULL,0xFFA6C2660018151EULL,0xFF974784FFAA2FCAULL,0xFFCADED7FFBDC638ULL,0xFFFBEAB1FFC63659ULL,0xFF4FBC7BFFEBE223ULL,0x000F38C1FFF3DBCAULL,
  0xFFB606E3FFF3BF90ULL,0xFFB9BE35000810E2ULL,0xFFC45B56FFF8A5DEULL,0x0007D4A7FFC7A704ULL,0xFFD6306EFFAC9B51ULL,0xFFCB9938001D642DULL,0x00120AB8FF95DE85ULL,0xFFACD93FFF713F79ULL,
  0xFF6F2633FFB811CAULL,0xFFEC33FAFF10A0BAULL,0x0027F59EFF8D263CULL,0x008B74B8002A651AULL,0xFF8B7F2DFFE33688ULL,0xFF6EACEFFFACD083ULL,0xFF827709FF898F09ULL,0xFFC4BE030011EFA7ULL,
  0x00381B2EFF55C544ULL,0x00225634FF6E4AB2ULL,0xFF6069FEFF5A5FD6ULL,0xFF8C27D5FFDEC56EULL,0xFFB3C27AFF8F6E21ULL,0x00295B90FF49C2A1ULL,0xFFCE507E0040392DULL,0xFF359F14FFB5AB4EULL,
  0xFF7652ACFFFD42ACULL,0xFFF26285FF53390EULL,0xFF9E6896FF843727ULL,0x0007DA58FF7BADDEULL,0x00BF9930FFF9F916ULL,0xFFEA248DFF92F0A0ULL,0xFEF77796FFE50187ULL,0xFFC4234FFFC6D1DDULL,
  0xFFD065DDFFBF6293ULL,0x00482480FFD84794ULL,0x003F102FFF51A6B1ULL,0xFFC8A85BFFE2ECFBULL,0xFF2A90FDFFE054CFULL,0xFF810BA7FFC391CAULL,0xFFC0B60AFF5279F8ULL,0xFF8AE430FFC2691AULL,
  0xFF79E5EAFFC56ADEULL,0x001DFF5E0026978AULL,0xFF98E0F10005E825ULL,0xFFDCAD32FFBD42F0ULL,0xFFB36E41FF718463ULL,0xFF8B20DFFFCD5D91ULL,0xFF91EC19001E0391ULL,0xFF64CB42FFE2F72AULL,
  0xFFDF2F91FFEE6755ULL,0xFFE8AD54FF9CE00EULL,0x0022F0C8FF7CF5E6ULL,0xFF73CFD6FFB19790ULL,0xFFC9A6D2FFDECFD0ULL,0xFF7A2E7BFF25D91FULL,0xFF349AFEFFA7315AULL,0xFF9C5E0AFF52AE8DULL,
  0xFF730674FFECBFBAULL,0x00150ADBFFC377FCULL,0xFFE49E03FFC60D27ULL,0xFF4B3F9EFFB0917BULL,0xFF26BC77FF5D0A5DULL,0xFF87A5BCFFE015EFULL,0xFF8A43190021E45AULL,0xFFD591BCFF944496ULL,
  0xFFC9C56AFF968D1EULL,0xFF2301C1FF8EFF75ULL,0x013A6503FFC8A7BBULL,0xFFA6F91EFF89247DULL,0x001F9CEAFFA7760AULL,0xFFE6E6FEFFB7AAF2ULL,0x00258FC0FFC37F61ULL,0xFF5B8BADFFC1AABBULL,
};

static const uint64_t __blob_Sigmoid_199_activ_ROM0[] = {
  0x0000000011C9C100ULL,
};

static const uint64_t __blob_Sigmoid_199_activ_ROM1[] = {
  0x0000C00000000000ULL,0x00000000C0000000ULL,0xC5D002000000C000ULL,0x0444C55002000000ULL,0x21110889D62612EFULL,0xF166419A199AE1B3ULL,0x0000EF703A001000ULL,0x5148EB85F0004000ULL,
  0xEFBD4E14EB85ECA4ULL,0xFBBC0BA2299AF777ULL,0xF68902221F511733ULL,0x3F80000000004913ULL,0x00003F8000000000ULL,0x000000003F800000ULL,
};

static const uint64_t __blob_Conv2D_205_mul_scale_203[] = {
  0x25D6417E2C294631ULL,0x3E502BB434B13118ULL,0x4542340C37C14707ULL,0x3AA82D4238EA30F2ULL,0x283850F82C4040C3ULL,0x30C225E137AD3657ULL,0x466333AB228B2FE0ULL,0x38F2400F34BA480BULL,
  0x4A082C8723DD42C7ULL,0x2CB8357F35692809ULL,0x25F4372953A32DF7ULL,0x3E8D2DED29022A6BULL,0x3276291E31C0351FULL,0x29BD38933E6D32CAULL,0x2B9A0D3636065599ULL,0x460445AD35EA412FULL,
  0x4ACC5C8832173F6FULL,0x39133A4617E53BDCULL,0x26FE603F3C315130ULL,0x237E433455AF45B7ULL,0x335163C843A126CCULL,0x3D9953092F0B2B85ULL,0x4E4D2363244A4328ULL,0x5ADA49A149B33D04ULL,
  0x284E633B3A2732B9ULL,0x362849B33F104680ULL,0x3D752F413DE64054ULL,0x3E9756B1308C52A1ULL,0x36165B2F30CC32A5ULL,0x3C352DE72E9632AEULL,0x407950AF63222EADULL,0x3BC73DC0324B2978ULL,
};

static const uint64_t __blob_Conv2D_205_off_bias_206[] = {
  0xFFD6B6B0FEFF630AULL,0xFFD2E68C016E08A8ULL,0x0056DA05002E8E9EULL,0x0017CA48FFE37F5DULL,0xFE75A3CFFE16F635ULL,0xFDED4174FF3217FBULL,0x001508ACFF925A69ULL,0xFFDA40FD004357DAULL,
  0xFF5B5CAEFEA5770DULL,0xFF2B70BA00169489ULL,0x009D2DFCFD3D389EULL,0x004F49EA00F63F5FULL,0x0010ADDBFF0D7D3AULL,0xFF412DCAFFA43B13ULL,0x0028065D00297490ULL,0xFFFB1BB600230116ULL,
  0x00F4FBBBFFDF52A2ULL,0xFF56A707014D769FULL,0x00A9DE43FF908FDCULL,0x003739F9FF3F7BA0ULL,0xFD467B1DFE5AD91AULL,0x00EF39C2FF48F150ULL,0xFFA9C12101B12DC6ULL,0xFF22C02AFF6D3AF8ULL,
  0xFFBC05ABFFAD8B8EULL,0xFF446342FFCC5CFDULL,0xFF9614CCFF0DE90AULL,0xFEC7806D009B92AAULL,0xFFE84471FC8454F4ULL,0x007A18A9021391ACULL,0x00760747FF8F1182ULL,0xFF4423E200787CF0ULL,
  0xFFC942A5FF0A36F3ULL,0x00041778FE828133ULL,0x00FBC7A30006F4DEULL,0xFF5C3095FF1E905AULL,0x0070C0DBFD134F0DULL,0x00A41B2BFEA6B89EULL,0xFEABB59CFFF8E4CCULL,0x00C248B6FFC2DF12ULL,
  0x00E48F6A003AD39BULL,0xFFD76E1CFFC63B6BULL,0x015F778000CE48F9ULL,0x01AFD95FFFE87A4DULL,0xFF20E320FF5F1985ULL,0xFF3149B600503705ULL,0x0011921EFD5980C1ULL,0xFF9239B1FF807596ULL,
  0x014DA927FF016CDAULL,0xFFC316C6FDC72DCEULL,0xFE5ACA83FEA608EFULL,0xFFEF5843FE2B6893ULL,0xFED6999D00703DD6ULL,0x00366FB0FFEEFCE8ULL,0xFE7018CAFF7BA5C5ULL,0xFF1FB0E1FF3ABA97ULL,
  0x01270945005136D0ULL,0xFF7DF293FED3B0F5ULL,0xFF25A7C2FE70E497ULL,0x00B478F8FFEA9905ULL,0xFDBDAF75FEB3100FULL,0xFF134A51FEFE0367ULL,0xFED9EAAF00231CE0ULL,0xFE47BF65008DCEB9ULL,
};

static const uint64_t __blob_Sigmoid_208_activ_ROM0[] = {
  0x000000000000C480ULL,
};

static const uint64_t __blob_Sigmoid_208_activ_ROM1[] = {
  0x0011C00000000000ULL,0x16840166C46A025DULL,0xEFDE464E076FD776ULL,0xF800EFBA4B84FF08ULL,0x5280FA00EA546400ULL,0x0DE32D55FD55F3E6ULL,0x0000304A0A65FF91ULL,0x000000003F800000ULL,
  0x3F80000000003F80ULL,
};

static const uint64_t __blob_Conv2D_213_mul_scale_212[] = {
  0x1B3218452AE9112EULL,0x2815193E148313FFULL,0x10641D5B23001CA7ULL,0x22215EB712071E4AULL,0x1C49147F176C15C9ULL,0x1C6D182425FD1EC8ULL,0x1D3C120F10E21BA2ULL,0x2EE918D711A515C2ULL,
  0x352C11B90B810FEEULL,0x10F9163C189F11E0ULL,0x12DE1DC90ECA1910ULL,0x1DD120D3156A1430ULL,0x22D115EC1A6012CDULL,0x0EB31FBC19F01090ULL,0x12A815A624532DF3ULL,0x180E18A412C548DEULL,
  0x1335111211DC1386ULL,0x16EF12360DA92516ULL,0x1A1316F820621669ULL,0x0E1016661B291405ULL,0x2CAE1B3117502C8EULL,0x12E619810C201A02ULL,0x165413DE20071B18ULL,0x10E516CF13CE1AB7ULL,
  0x127F1DDB16C72488ULL,0x19640FED14601467ULL,0x22DB1646149422AEULL,0x13D31CC716BD30A1ULL,0x10BF13070EE7116FULL,0x0F9A15471B51174AULL,0x1DE8195C138D1767ULL,0x2FC91CF8152713E3ULL,
};

static const uint64_t __blob_Conv2D_213_off_bias_215[] = {
  0x01C6281F006032F6ULL,0x00CA1BF300CAC910ULL,0x00A8960A00C78C18ULL,0x012B7E10004B739DULL,0x000E4A030082CFE2ULL,0x010F2749FF97DF5FULL,0x00A017DE018B9807ULL,0x02D5DC45FFAD6FF4ULL,
  0x000A27AE0095552EULL,0x00B633AF005DC8F4ULL,0xFFD8851600FFE502ULL,0x009DE92D00E42C11ULL,0x00A710DC0111E4A0ULL,0x01677D6F0130A8FEULL,0x01003FF500EDCA8AULL,0x01347623008D2CDAULL,
  0x00F354700186926FULL,0x011455FC0127653DULL,0x00F1E78B00218A0BULL,0x00BF23FF00FCA2BCULL,0x0189BC6E0070485BULL,0x00D1FDA000495C42ULL,0x01588E890051B38CULL,0x0065578DFFFACD77ULL,
  0x008086B4013A9018ULL,0x015F81EF00F2A2B1ULL,0x00CCE72200F293AEULL,0x00EA3D7101196D5FULL,0xFFD8C218FFEA148EULL,0x0113163A00A28134ULL,0x00FEC81A01C85654ULL,0x0123A87D00974E62ULL,
  0x00A2D46A00C17D27ULL,0x00477862005CE5C4ULL,0x00CA470F0073977CULL,0x0168205601139DEEULL,0xFFBD4E870148DA6CULL,0x00B7B46E01B3E1A1ULL,0xFFC5457A00B1EEBFULL,0x004B722D00FBD15DULL,
  0x0157912D0151D1A1ULL,0x00A0C066003784DBULL,0x013C4221FFCBE4A9ULL,0x00B7CF610083B7F5ULL,0x002AF42C007E675BULL,0x011D8A83008A4BFAULL,0x010D83E1013BF424ULL,0x01457C3200DE9F7EULL,
  0x00F4690D00B8B2D9ULL,0x01252626014B5B11ULL,0x01348A84010B1D6FULL,0x00A5AE8C00959ABBULL,0x001089FE00CF6EA3ULL,0x0076CD350153AD15ULL,0x00772351010A01B0ULL,0x00943A63008B27EBULL,
  0x00846D4200D7FD84ULL,0x00F08AA3011CB515ULL,0x0069E44E002BF418ULL,0x00DB813200C3DC23ULL,0x019B0D8D00FA8EBDULL,0x0118EAB700DB8C66ULL,0x0110017800A64210ULL,0xFFA081F2FF076EC1ULL,
};

static const uint64_t __blob_Sigmoid_216_activ_ROM0[] = {
  0x000000000DC58100ULL,
};

static const uint64_t __blob_Sigmoid_216_activ_ROM1[] = {
  0x0000C00000000000ULL,0x061800FCC0000000ULL,0xD06E0CC1029BC9B5ULL,0x1000DCA622660CCDULL,0x32000222DD202400ULL,0xC8E05400F000D94BULL,0xF333C9285400F000ULL,0x4D9AF333D31A48CDULL,
  0x30E004000000C700ULL,0x00003900019A0000ULL,0x000000003F800000ULL,
};

static const uint64_t __blob_Conv2D_225_mul_scale_221[] = {
  0x27E2208D20921CD9ULL,0x204624E322AD3C5BULL,0x2315323B29041E20ULL,0x312724D41B942DDCULL,0x1CDF2AB02B861A06ULL,0x314F330731EF1DD3ULL,0x255527EC2CC43162ULL,0x26EC23FA23CC16EFULL,
  0x1AE630A41A711ABAULL,0x1CA93966196F2756ULL,0x1B861FD324EF2354ULL,0x28D61DEF25FF2611ULL,0x2BEE1DF926EA3522ULL,0x24CC52731EE228D1ULL,0x1AE72680224027BDULL,0x1D1C187420B61B04ULL,
  0x324528AC24C61CBFULL,0x287C1B7228361DECULL,0x21D31641191D26E4ULL,0x24712B2C1ACE1AE6ULL,0x22D915C724EC1BCBULL,0x25662835245B20D3ULL,0x2AB71EBC26384A1CULL,0x1A011DE71BFA1E14ULL,
  0x2B57275635962A2FULL,0x22461FED1F53217AULL,0x33441F9D2F081FDAULL,0x30D8260A201B27BAULL,0x1CBF1F5E1C3117A0ULL,0x275A575227EB1D11ULL,0x31CE1F3F1A0A1AE3ULL,0x1BCC23A729642CAFULL,
  0x1D762A911EA61DEEULL,0x26EE2C92209F2351ULL,0x1F2321C51F901A2CULL,0x1DF32846321D1B03ULL,0x1B153E6024891EF0ULL,0x2D161CF828C920D7ULL,0x2038296B1EE7369CULL,0x2F1617F92E6B2E8AULL,
  0x221D163826AC1F74ULL,0x3AE4181E225A25B8ULL,0x202D181D1E511F0EULL,0x299D2EFB28331ADCULL,0x2EDB24AF27171658ULL,0x28082C1D1FE41E79ULL,0x2E1425FB25841EEAULL,0x218933311DFF1D82ULL,
  0x19F924A823C02548ULL,0x1E1C284421A125A6ULL,0x248B1FF527772BA9ULL,0x20191C781CBF275CULL,0x263C198A2F0E2A73ULL,0x3DD61E4F3A291E1BULL,0x1C691AB1217552AFULL,0x3367287B32962493ULL,
  0x1FFB1F20238C1B1DULL,0x1AEF24911BC2242FULL,0x275621AB1F091CD0ULL,0x242F19C433A51D6BULL,0x20852DE5217A2829ULL,0x1D67225429381D62ULL,0x396B2DC51E732025ULL,0x233C31D01C0A2152ULL,
};

static const uint64_t __blob_Conv2D_225_off_bias_224[] = {
  0xFF37FAE8FFA41C7AULL,0x001E3B83FFA6A455ULL,0xFFAB730B001C20C1ULL,0xFFEB1FD7FF87F0DBULL,0xFFD0A85DFF98EA67ULL,0xFFB5B4B400142C81ULL,0xFFB431B1FF84107CULL,0xFF9F7183FFC6F4D2ULL,
  0xFFD08440FF51859CULL,0xFFBF297AFFB7AE97ULL,0xFF745AC4FF895E97ULL,0xFF5F26B100101FD6ULL,0xFFA041F8FFCFDB7FULL,0x005EF331FFC01521ULL,0xFFE875FDFFC952D8ULL,0xFFB6C51BFFA8281FULL,
  0xFFBF0E47FFBA6CB1ULL,0xFF5B5E1CFF6AAB4CULL,0x00152C65FFAFC8D9ULL,0xFFFDF907FF9892EAULL,0xFF67BAC0FFCFAA95ULL,0x0039CB28FFF05C40ULL,0xFFCDD0A40085C2FFULL,0x001A9450FF7B308DULL,
  0x00159167FFBE2B68ULL,0xFF748FA0FF8F0B55ULL,0xFFC4923B001CAEF8ULL,0x003BAC03FF9EB2C0ULL,0xFFE8199DFF6D24F0ULL,0xFFB20FB2FFA25082ULL,0xFFEAE377FFEA0A26ULL,0xFF4242960028C4F4ULL,
  0xFF86C7BCFFA515FBULL,0xFFB48B41FFC6E224ULL,0xFFF04C98FF938F3BULL,0xFFAEF23AFFA92CD5ULL,0x001195AFFFD95710ULL,0xFFAE0D3C0014299EULL,0x003FA9A000285CAEULL,0xFF9DC8F3FFE0058FULL,
  0xFFC9A849FFD7D9AFULL,0x001394C4FFEAA361ULL,0xFF904DC90048F321ULL,0xFF5ACEEFFFF0DF1DULL,0xFF86CF39FF230A05ULL,0xFF5BD40DFFB23726ULL,0xFF319370FF846E51ULL,0xFF704E7D007DA980ULL,
  0xFFDA739CFFF1BBB5ULL,0xFFC65BB2FF5464F5ULL,0x000ABE590022FA34ULL,0xFF4B32A6FF9245C3ULL,0xFF742DF9FFD61008ULL,0xFFE4BD02FFCAE54AULL,0xFFA8BAAB000E85E9ULL,0xFF41D150FFA4B876ULL,
  0x00025BE2FFB753F3ULL,0xFFD6A620FF91667AULL,0xFFFBF884000FE59EULL,0xFFF6779B01154FD7ULL,0xFFEF4CFF0009F06FULL,0xFFE6B3F2005170C5ULL,0xFFB2B245002D90C8ULL,0xFFDCBAA20008E140ULL,
  0xFF232431FF590439ULL,0xFFAB7665FFFB5C4CULL,0xFFA40BA500171C52ULL,0x0035006FFF9B12FCULL,0xFF936EB6FF93BFB6ULL,0xFFCA37A3FFD9B94FULL,0xFFD1644BFFDFDE0FULL,0x000D8A79000BB6ABULL,
  0xFFCEFCA6FFBA615CULL,0x0039D18FFFD5EDD8ULL,0xFFAA18A7FFD9FF16ULL,0x000F7664FFFCA6CDULL,0xFFEF171AFFDFA882ULL,0xFFE470F2000D7DD5ULL,0xFF757A2FFF48CD02ULL,0x000844180002B2F6ULL,
  0xFFBDE4DBFFE5DD56ULL,0xFFAA78CBFFB2E229ULL,0xFF8C8C8A000838FCULL,0xFFA1D9290058A29EULL,0xFFDB350BFF8ECA2CULL,0xFFCC0149FFD52273ULL,0xFFB88591FFBA34A7ULL,0xFF55A1E9FFD7B684ULL,
  0xFF92B8740047B553ULL,0xFFA38B06FF9182C5ULL,0xFF5A1E04FFBB2FCDULL,0x0074B787FFD45F03ULL,0xFF63EC7AFFC8E520ULL,0xFF91DBE6FF6C7072ULL,0xFFF7A310FFFCB98AULL,0xFFA9D3A8FFECEB64ULL,
  0xFFB7E5C3003BA8C6ULL,0xFFDDB094FF969C45ULL,0xFFB561DAFFA88B0DULL,0xFF983988FFE05108ULL,0x001527A80112CFA8ULL,0xFF7B1612FFA3400BULL,0xFF70E7DFFFE2F5E7ULL,0x001732D80035CBE2ULL,
  0xFF814140FFFC6319ULL,0xFF7D4690FFAAB306ULL,0xFF891912FFAD199FULL,0xFFC12630FFB2FE08ULL,0xFFAFF3D2FFED90DAULL,0xFFC214B1FF9DD433ULL,0xFFE8C42AFF7AE5ECULL,0x010AC8DDFF752897ULL,
  0xFFA22025FFFCC371ULL,0x00A6C240FFA76676ULL,0xFFB6BCE9FFF3E5DDULL,0xFFA4209BFF94E5DBULL,0xFFAF41DCFFA4CF4FULL,0xFFB67B1B0050CC60ULL,0xFFDFF5E6FF078D55ULL,0xFFC80C720004F8E4ULL,
  0xFF4BF7EBFF9519D5ULL,0xFF8E14C9FFE32450ULL,0xFFB007F0FFAE97A8ULL,0x00176B81FEEEBD55ULL,0xFFA4D4BAFFC5FA66ULL,0xFFDC6BCAFFD195FEULL,0x00209591FFC3AD2BULL,0xFF925E84FFB30500ULL,
};

static const uint64_t __blob_Sigmoid_228_activ_ROM0[] = {
  0x00000000000000C0ULL,
};

static const uint64_t __blob_Sigmoid_228_activ_ROM1[] = {
  0x0092C00000000000ULL,0x1CF001F8CEB90BAAULL,0x03B76D200C0EDB2AULL,0xFE2C030166A3F410ULL,0x0000000027D01A49ULL,0x3F80000000003F80ULL,
};

static const uint64_t __blob_Conv2D_232_mul_scale_230[] = {
  0x0C8B0CD7123D0F4FULL,0x42790AB10C02147BULL,0x10C21DE11591169BULL,0x11060F101F980AD5ULL,0x108612E814AE160BULL,0x0C0F0D3514631B42ULL,0x0D3319430C1E0EE2ULL,0x0E661804136E1AECULL,
  0x10DE13E4105125ADULL,0x0C0610EC1406125BULL,0x0CEB10D10C021444ULL,0x1DE326AC125418D2ULL,0x0CF80E370E9B0A12ULL,0x51C313140F5F1343ULL,0x143210FD0DCF0ED4ULL,0x0F9F278115D30D0BULL,
  0x0E121332199113D7ULL,0x15060E4115EC1366ULL,0x127714DD0EA31295ULL,0x0FE00E9411580FCEULL,0x13CD0F7B18674BE9ULL,0x10D00F340E9E1476ULL,0x0CDE163711AB18A1ULL,0x160711F6101531E8ULL,
  0x123E0C4F10530BA9ULL,0x20CE0EE20A730C6BULL,0x158B131425560E26ULL,0x10DF0E2F1033138BULL,0x1E54114E0F0F142FULL,0x216410E911121320ULL,0x0BFB13DD0DAF0BAFULL,0x109F13AC13B61F41ULL,
};

static const uint64_t __blob_Conv2D_232_off_bias_233[] = {
  0x0172D31E01F991ACULL,0x0287025A023BB47DULL,0x01993C870297A7D5ULL,0x00AFF6590242DA1CULL,0x01DEEFF702BBF6FFULL,0x024E368E01632CEAULL,0x0225295F01A0F6C5ULL,0x023134AD023A7D65ULL,
  0x029C1304021D72A8ULL,0x021C5E3E01C36860ULL,0x02083C070273E7DEULL,0x01B54988028E845BULL,0x01FB90360254447DULL,0x0238D8BC028B45E8ULL,0x021A0E310263C5FCULL,0x0220CC97027321ABULL,
  0x02772C2801804DD7ULL,0x01A752B201D33178ULL,0x01FB45DC01A5071AULL,0x01F4C53202465CABULL,0x012222A602705C71ULL,0x024DE99701CF1A70ULL,0x02698A26021FB9CAULL,0x01CB8AFD0246189FULL,
  0x0257ECCB01B29F02ULL,0x02361831022F27DEULL,0x029EB4A202498031ULL,0x014D3AAA00AC6E49ULL,0x01A8FA8F027409BDULL,0x01C1A9A402580C94ULL,0x00F81C6402A97DD9ULL,0x02667EDE0189B26BULL,
  0x0248AA2B0294A55AULL,0x01EBBF4D01D40DB3ULL,0x0248C63402AB826DULL,0x01C8AFF6018C2B12ULL,0x01938A3D027ADCC5ULL,0x01B678B3023FEB6AULL,0x02570324021C5108ULL,0x02A376560261F069ULL,
  0x025A2113012A94B9ULL,0x029692AA026ACAFAULL,0x0218DD02028088B6ULL,0x0249472F01C699D4ULL,0x02347B7501A3B105ULL,0x01A09A33031B9E37ULL,0x025442DC01570C47ULL,0x01F579920170927EULL,
  0x02390730016237DFULL,0x02132A5301E81C24ULL,0x01E2E367021485E8ULL,0x0218CD7401D4F775ULL,0x010FB331025EF99EULL,0x01D347D2023F32AAULL,0x0245F9610283FE47ULL,0x01E725F10133FF3DULL,
  0x0201911F0273021AULL,0x023260AF01CECC3FULL,0x01FF6E7B01C277DBULL,0x02B421CF024616ADULL,0x01B7106E0216D394ULL,0x023F6F110286F62BULL,0x0268BE01023541B5ULL,0x0247BF2C023D240DULL,
};

static const uint64_t __blob_Sigmoid_235_activ_ROM0[] = {
  0x000000000000C8C0ULL,
};

static const uint64_t __blob_Sigmoid_235_activ_ROM1[] = {
  0x0000C00000000000ULL,0x00000000C0000000ULL,0xC00000000000C000ULL,0x00E9B77BF3DDFF01ULL,0x28920492CB7F0CB2ULL,0xDDD83C9F09F5D912ULL,0xF6DBDDB343060678ULL,0x79DEF6EFCF127EDBULL,
  0x040236DEFCC5D39EULL,0x00002AA90F77FF4AULL,0x000000003F800000ULL,0x3F80000000003F80ULL,
};

static const uint64_t __blob_Conv2D_243_mul_scale_239[] = {
  0x16EC0EA824590942ULL,0x1F9522E5145E26DCULL,0x15750A9B17411053ULL,0x076B108F0C13100EULL,0x18020F420D9A1240ULL,0x141716EF1A9A0E36ULL,0x1AFB15DA1D1115C7ULL,0x14C6084C17691251ULL,
  0x1CA232220BFD1512ULL,0x10A4153D1C0F1F96ULL,0x0A1C1ECD0BD411C5ULL,0x0CF414EA18F60E84ULL,0x11290C3112460917ULL,0x0DCE0CFC0A081AD6ULL,0x145209EC245E0A68ULL,0x1A58186E0DF9189CULL,
  0x317911610E2F0C02ULL,0x0A3607FB24D01415ULL,0x11DD14BF20F90F21ULL,0x0AED41B40B511F68ULL,0x179B0B5814140AE6ULL,0x15A118AF0FB80D31ULL,0x11483A8D14A10C11ULL,0x0C2010BA0825158FULL,
  0x16D40FD21C2D104FULL,0x0D011955134211E1ULL,0x0C270D5F140B17ECULL,0x0C4C1AD51EA206D4ULL,0x1AE52486103A1333ULL,0x0C4F0ABE2AF30F67ULL,0x0CDF20641E980EA2ULL,0x0A970FF514ED0D26ULL,
  0x0F7C0B87120F0B5CULL,0x0DA512450F761B2AULL,0x09180E4B35000A39ULL,0x1207117724CC1143ULL,0x16A50CAD0C4A0629ULL,0x12E40F061B081D70ULL,0x1F86163D1E3122F2ULL,0x1D2912E92D0A1DF6ULL,
  0x187C0F8A0CA51242ULL,0x118D13140D294BD0ULL,0x11D612DD136C1B55ULL,0x0C7E0B2110CB13ACULL,0x175614ED0E1B150CULL,0x1F81124214CC1592ULL,0x0D260E7C0EA11528ULL,0x0DF5139F10741E01ULL,
  0x11240BE5192311A0ULL,0x1622091F187E1B14ULL,0x15A61AB30CCD1356ULL,0x0EA0102710411BB9ULL,0x110211F609E1108CULL,0x093A0A861AC112CDULL,0x149D1B5C2CAF1DE9ULL,0x12F6080A0EDD25CEULL,
  0x0AF9082F109B1539ULL,0x140010D5122F0B44ULL,0x26A913FB0A2F0B5AULL,0x12C0250D0E981782ULL,0x17851C7018C81965ULL,0x12110CDC0C2713A2ULL,0x13C70F621019167DULL,0x1B0B0A8D185A1499ULL,
};

static const uint64_t __blob_Conv2D_243_off_bias_242[] = {
  0xFB6839FC0472BE1AULL,0x03D85777060C4E50ULL,0x01558CAE04411D2AULL,0x01567910FEDFA690ULL,0xFB6CAE2807BBBCA0ULL,0xFCD936690869783CULL,0x0543E4ECFE144A56ULL,0x056B830AFFFC4A8DULL,
  0x00D5C4DD006D40A2ULL,0x02F563D7FF31887BULL,0x077CD3CB03E38A1BULL,0xFDEDB998092A0EA0ULL,0x03001303023BDC00ULL,0xF753CA79FDE399F4ULL,0x06E799ADF8CB10D6ULL,0x068666E0075313E3ULL,
  0x05A2A84CFE2B334BULL,0x0B19C569F440307AULL,0x005EF1FEFC4F6EBAULL,0x05F166D1FA755515ULL,0xFAC6D459FF96BE19ULL,0x082FB5AC09469D10ULL,0x0A061FE9FE89A6C6ULL,0x00467CE1F5989158ULL,
  0x05845D3704342EE9ULL,0x06602073078C583DULL,0xFFC1EFB4006324D2ULL,0x0A394D4F03508B24ULL,0xFEE2740609CB9FE6ULL,0xF96B04C60A4F5518ULL,0x045A92A50E7AC55FULL,0x0D8B5F5C0743E260ULL,
  0x07611FFB07190503ULL,0x03EA9B3DFF95275DULL,0xFA2B714C02F38B46ULL,0x0879AA1A0147235AULL,0xF95B5DFD058D5A64ULL,0xF9243D25FBCCAA37ULL,0x00EEEB2F08F0BEF8ULL,0xFEF9A37605ED2475ULL,
  0x00A64425035128A0ULL,0x079E8938FBB9A142ULL,0x055649B005744C3AULL,0x05EC620715ACFB26ULL,0x0782981805356E90ULL,0x09074B98FAA0577BULL,0x042986C9FBF277B6ULL,0x0A1E09EAFDED7D22ULL,
  0x0290E6B30B8D92D2ULL,0xFC87DA8A04B013A1ULL,0x05D7BC7E036E0858ULL,0x011820F306818D3DULL,0x0813892AFF34F9C2ULL,0x0503941704287BB6ULL,0x0690E7B004E7A158ULL,0x0033E4B3FBCA2F0CULL,
  0xFEA440E2FAF843C4ULL,0x0064E1C6037EE00DULL,0xF698ED2AFA513E1FULL,0x09CC0F78FC2E8BDDULL,0x0B0ADF770426B00EULL,0x01E80881FAA8A3EDULL,0xFE3D17D0044614E6ULL,0x02F0AEF9041199BAULL,
  0x0F9E150C05D02114ULL,0x0B18A28300FDB00CULL,0x028C9AC805DF1E73ULL,0x00ED71C7FC242DEAULL,0xF96C41F903F676D5ULL,0x036465BD065BCC37ULL,0xF3C6E68FFE1AD8F4ULL,0x04F76EFB019B19E8ULL,
  0xFEA8FAC301F1310FULL,0xFA667C7005A92F8BULL,0xFB80AA8C089617EBULL,0x0380793300026C86ULL,0x047B372CFA2EF458ULL,0xFC6D634E06848022ULL,0xFDEF9AC203BCE2BCULL,0xFEF3F7890666DFFAULL,
  0x028988FF07273E42ULL,0xFCB0E6F703E2B4EEULL,0x0B1522F50DE0F62EULL,0xFCC2102405B52447ULL,0x02E23E4D026E7CD8ULL,0x01CE1079040828E3ULL,0xFEADB8C70661A40FULL,0x08C7246E07AD382DULL,
  0x0988F3370454D44AULL,0x0509F626F8506660ULL,0x037E4FD0F758FB11ULL,0xFA38AC6C07B42514ULL,0x05D34B81F47DDB50ULL,0x01CED1D605A60241ULL,0xF73B44970305DA7CULL,0x00E17D7F052B1F27ULL,
  0x0D2E18B80A228D51ULL,0x08629E30FF00337DULL,0x02CFC5D6F41744D3ULL,0x0544A637032CF4DCULL,0x0C408269074B6DC0ULL,0x0DE912CC0590B93DULL,0x06390956FA7CF7A6ULL,0x03CCBE0E0466188EULL,
  0x039D03BA038DC924ULL,0xFFDDACA3039C10D4ULL,0x062F86CCFAED51E1ULL,0x04D02CBB012A4097ULL,0xF958081800583210ULL,0x01E913EDFDC20554ULL,0x0839D1DE063011B6ULL,0x0D869E3D050FF64DULL,
  0x03E4A87E0117664AULL,0x03C5A2FF02AB1841ULL,0xFD3397EE0C87442FULL,0x019985A3FE113E27ULL,0x03ED4920FF3352F1ULL,0x03F2DB6FFE1D1581ULL,0x0F6BCB3604FD94AFULL,0x03180868FC703D82ULL,
  0x0783D424FBE824A7ULL,0x0140EB680A67D0CEULL,0x0203EABA01C470B4ULL,0x0471A67701E8D2B0ULL,0x0395C73208AD22A7ULL,0xFFF513AE006112EFULL,0xF66DAD8906884F6DULL,0xF504552A035D5481ULL,
};

static const uint64_t __blob_Sigmoid_246_activ_ROM0[] = {
  0x000000000000C240ULL,
};

static const uint64_t __blob_Sigmoid_246_activ_ROM1[] = {
  0x00ADC17D0025FFFBULL,0x0A8C02E9CB6F0A71ULL,0xCB970CCD0222CC00ULL,0x015BCAC60E4E01F0ULL,0x3A39FED1C7671410ULL,0x844C5362FD8AA35FULL,0xFEB8996A45B0FE1BULL,0x00000000BB85335CULL,
};

static const uint64_t __blob_Quantize_252_2023_requantize_zero[] = {
  0x0000000000000000ULL,
};


static const uint64_t __blob_Conv2D_256_mul_scale_248[] = {
  0x2AF71B8118401DB1ULL,0x0F9619D023491C6CULL,0x1613236813B8209CULL,0x14941C7E1C4B39F8ULL,0x1C8E31791F9B17D0ULL,0x23330D2615DB199CULL,0x17052C151CB21D85ULL,0x190329A41CF021EBULL,
  0x1EEC1F71186C2B05ULL,0x0FC9201C136F181DULL,0x23D41C29226B1F54ULL,0x15C00DB8188418E1ULL,0x10861AD72C262299ULL,0x236011E1158C14D5ULL,0x263B23A713752007ULL,0x203D1EEA0F922903ULL,
  0x20561774238C1698ULL,0x4D9B0B891DEF19E4ULL,0x322F22E91C9C1494ULL,0x23C01DEA22C91447ULL,0x18A9273F17ED15DAULL,0x1B744AA71CAF1F6AULL,0x103720A82538199EULL,0x1E9E1B1242B11A63ULL,
  0x1674223723E51E9AULL,0x1ADD1B90105F211DULL,0x13A718371B121E54ULL,0x17AC14B71D5111CBULL,0x14D662D121952203ULL,0x150418791FAE1AD4ULL,0x2029132F146417B9ULL,0x191A1EED13811812ULL,
};

static const uint64_t __blob_Conv2D_256_off_bias_251[] = {
  0xFFFD6E8AFDFCC8DEULL,0xFD6855D1FF32A6F8ULL,0xFF18241CFF90654FULL,0x005DABB500A44D34ULL,0x003A9C3AFEE5BE92ULL,0xFFD0D581FE8A098CULL,0xFE993194FFC8550EULL,0x00C32D77008D797EULL,
  0xFF232C6CFFE2E929ULL,0x001EE1FDFCA181B8ULL,0xFF2FE6E2FFD4B27CULL,0xFDDA8A1D0092DE4FULL,0xFFF3306DFD87B054ULL,0xFFE53CBD0071E2F0ULL,0xFF597A26FE9C5F16ULL,0x0071F7E4FF0E8B34ULL,
  0x0006AF0EFDECDAF1ULL,0xFF105F90FD791C91ULL,0x00D65879FFB430A4ULL,0x00874CCDFED880D7ULL,0xFDA76A85FF56C8BCULL,0xFE8BD98BFF933E28ULL,0x00801211FF029E7CULL,0x0127C7FA008B61CBULL,
  0xFF18FF52FEEA3173ULL,0x0010B0ACFF69BFA3ULL,0xFF896B3F0023EBF3ULL,0xFEF030A6002F9E97ULL,0x004FD909FE74733DULL,0xFDEA7D6DFF6C1FFCULL,0x013FF6930003BE64ULL,0xFDEF19A9FFA3710DULL,
  0xFF007570FF1121F3ULL,0xFEDDEE1AFF691571ULL,0xFEF92ECFFEC7E0EAULL,0xFCD045BC019286FDULL,0x01BC0701005B7E25ULL,0xFE5AC5C5FE8CDA1EULL,0xFF943BBB0112A772ULL,0xFE84344EFE787C0AULL,
  0xFE5B7F62FEBF5D79ULL,0x018397D2FE005FCEULL,0xFEEF878AFE44C5E5ULL,0xFF94EFF4FFDE223EULL,0x00FBE92CFE8E66CDULL,0x0077E321005DD8E7ULL,0x0030B270FF8F55ADULL,0xFF7ABDFFFFBC4C2BULL,
  0xFE486F97FF175F40ULL,0xFF80DF3CFD812344ULL,0x00254522FDDC0F0EULL,0xFEADC9C9FFDD4B44ULL,0xFEDB5373FF34DA1EULL,0x01257808FF854240ULL,0xFF5CBB390183B2B4ULL,0x02064B300037B5A9ULL,
  0xFFA61696FEBDA17CULL,0x015A48B4FF14D2CAULL,0xFDD871C7FF7BF363ULL,0x00329E78FFBA4B56ULL,0xFF688C91FF1B36C3ULL,0x00FBE46800319B2BULL,0x007FA10F0032A2A3ULL,0x008761C1FEDCA882ULL,
};

static const uint64_t __blob_Sigmoid_259_activ_ROM0[] = {
  0x000000000000C480ULL,
};

static const uint64_t __blob_Sigmoid_259_activ_ROM1[] = {
  0x0024C00000000000ULL,0x1BCE01CDC63903DCULL,0xF632512308AFDBA9ULL,0xF600F5C95555FB8EULL,0x3F6EFB6EF11B6980ULL,0x1EC21E39FE3905EEULL,0x00002EC90CE0FF64ULL,0x000000003F800000ULL,
  0x3F80000000003F80ULL,
};

static const uint64_t __blob_Conv2D_265_mul_scale_257[] = {
  0x211C24F23F491C7FULL,0x2AB826EA29641D8CULL,0x231739572A542B52ULL,0x2D062D742FB73001ULL,0x3F143CA725DD4E66ULL,0x2E6E335039F04213ULL,0x29491CDD2CB44290ULL,0x2E55335A171F30A1ULL,
  0x288634A24F312C30ULL,0x38C9624930232EE4ULL,0x2F2733A3592A1F7AULL,0x26FA23122E07327DULL,0x30BB19EE3EB6315FULL,0x1A1132252D5C5C0AULL,0x22D718BA41AE298CULL,0x423C2DA42AB331F6ULL,
};

static const uint64_t __blob_Conv2D_265_off_bias_260[] = {
  0xFFCD394100E7545EULL,0xFF6DBF16FF9EC919ULL,0xFFAC4AEA006666FDULL,0xFF5B68680046ED46ULL,0xFF8524910009C067ULL,0xFFD576CCFE23AC5AULL,0xFF64CD910058C9D4ULL,0x0135100CFFD62B62ULL,
  0xFFFD8347FEDEEE47ULL,0xFFDEFC72005DE19CULL,0xFEB526B9FF7D17ECULL,0xFE4FBC75FF42515AULL,0xFF586743FFD27003ULL,0xFF14A91E0044876AULL,0x008957ACFF8C6B98ULL,0xFF556638FF4BC503ULL,
  0xFFA21406FF7CC687ULL,0x005F6F6DFE801F3AULL,0xFF86F5E0FFAA9178ULL,0xFF367725005A0C49ULL,0xFF7061C600282F61ULL,0xFF850620FE95F6F8ULL,0x007E93B8FE9A6906ULL,0xFF37E1DE00980731ULL,
  0xFE9A7434FFDEE8CBULL,0x00792FDBFFB419DCULL,0xFEFEC172FEF8D1C8ULL,0xFFDD78E300027848ULL,0xFF6FB7A7FF6A6635ULL,0x00E750370127F94EULL,0xFF6E87A7FFDCC5A4ULL,0xFED277ABFFF92CC5ULL,
};

static const uint64_t __blob_Sigmoid_268_activ_ROM0[] = {
  0x000000000BC34100ULL,
};

static const uint64_t __blob_Sigmoid_268_activ_ROM1[] = {
  0x02138A3602C20017ULL,0x4E77074EC74221B9ULL,0xF69C4D55F8E4F815ULL,0xFD28FB0040000000ULL,0x5C00F800FE8E41C7ULL,0xF0B95639F8E4ED08ULL,0xFBBC52600C000000ULL,0x0555000004B33F77ULL,
  0x6DF00597FFC767ABULL,
};

static const uint64_t __blob_Conv2D_273_mul_scale_266[] = {
  0x22C92E3D21A82228ULL,0x29AA166018EA1721ULL,0x35D224F831D92981ULL,0x31CA14671DDF47CDULL,0x273E1C2C1A7D13CCULL,0x244B2F3628113A50ULL,0x359218FD36632D4AULL,0x2F6528C239341E59ULL,
  0x2E97312C1E332522ULL,0x3333172B1A0C241DULL,0x297520FD2D736684ULL,0x1EDF3216262829F8ULL,0x2A3D1C0345CD273FULL,0x255416752A0117D1ULL,0x4C362220274B21E0ULL,0x1930295C30195419ULL,
};

static const uint64_t __blob_Conv2D_273_off_bias_269[] = {
  0xFD2C9115FEA13B4DULL,0xFDC845F5FD870CA6ULL,0xFE9DF1EEFE5D0646ULL,0xFD43CD9BFEC31F60ULL,0xFE1F25E4FDDA630CULL,0xFDDCCB41FD0989BDULL,0xFDFDB7B0FDA5F4A2ULL,0xFE09A355FEA27FC2ULL,
  0xFF1F340FFE260F28ULL,0xFDF63DB2FDD7C26DULL,0xFDAF06B6FD89C64DULL,0xFD5F3B16FD8F0FFBULL,0xFC965D7DFD808903ULL,0xFDE301F4FDE1901DULL,0xFDCD331EFDFF14C4ULL,0xFDBD46F1FD92F787ULL,
  0xFDDEAA75FDF42BC3ULL,0xFDFEB78DFE197A77ULL,0xFED5C3CAFE2753D6ULL,0xFD9A64F0FEDDCD48ULL,0xFDB88268FE4222D9ULL,0xFD709CAAFE047F74ULL,0xFE692A1AFDE91199ULL,0xFE80C45AFD2D2223ULL,
  0xFDEC4CA5FE6F9FB5ULL,0xFDEAD0B6FDC073B6ULL,0xFD9E7465FE8DF5F8ULL,0xFE542D6EFEBF37F9ULL,0xFD5B13E5FD99F75AULL,0xFD32B370FDFC822FULL,0xFD6CF022FD568B04ULL,0xFE8E636CFDDB4978ULL,
};

static const uint64_t __blob_Sigmoid_276_activ_ROM0[] = {
  0x00000000000088C0ULL,
};

static const uint64_t __blob_Sigmoid_276_activ_ROM1[] = {
  0x0000E00000000000ULL,0x00BA0000E0000000ULL,0xFE8016AB0222E246ULL,0x0D552E5646000800ULL,0x1400F7DB4C1669ABULL,0x1C6A0666F3332122ULL,0x00001CE706D3FDEAULL,0x000000001FC00000ULL,
  0x1FC0000000001FC0ULL,
};

static const uint64_t __blob_Conv2D_282_mul_scale_275[] = {
  0x16BC1DCC19BD36A0ULL,0x0EC41A703051192DULL,0x1ECC1F3110AC1375ULL,0x20D51B9B140A1A35ULL,0x0D2320C60C7D149CULL,0x1C4320111A372D72ULL,0x1566244318702077ULL,0x19341740167D1BE6ULL,
  0x20CF1CAB16E71469ULL,0x186A17C41F651B1DULL,0x0B781FA0133C1AE6ULL,0x12792B461BA21224ULL,0x280728312D3529C6ULL,0x0F1722BA25CE28FFULL,0x0C6524F41458218EULL,0x29FA173238400DCAULL,
  0x0ED819141055228CULL,0x149D12F718401181ULL,0x29FC3C0C12E21A09ULL,0x21A412150D730B3AULL,0x16DA11C8144A1BCFULL,0x1A391E621CFB1E9FULL,0x14CD1F85203D19D2ULL,0x1E3515F714331635ULL,
  0x17B0175421DF1AD4ULL,0x1EFF19E627801A26ULL,0x2D8B0C2D1A521F4CULL,0x10863160219B172EULL,0x19D8193519B01B25ULL,0x1A9410A114EA168AULL,0x2B07252915C71297ULL,0x11F3140574542A1BULL,
};

static const uint64_t __blob_Conv2D_282_off_bias_278[] = {
  0x02EA4AAE03264EE4ULL,0x03350E44032EF4E4ULL,0x02F94E0F038D67E8ULL,0x03CE3B68032777E9ULL,0x0361169803592C41ULL,0x0329F3CD02D00E7FULL,0x034687C403255671ULL,0x0330B517034234FCULL,
  0x03D53C2C031DE263ULL,0x03AD1ED3031A56E1ULL,0x02BC421F03121366ULL,0x02FB3A8603A1834CULL,0x0317BCB103685132ULL,0x0348A4A102FEBB3AULL,0x03C3FAC002C88B84ULL,0x032A91670322920DULL,
  0x02FD81DD038CAE19ULL,0x02C3099502A392C3ULL,0x036B2F6903F31201ULL,0x03248CC70312DF19ULL,0x034BCA20034B868EULL,0x03C7C9DA02EBD6EAULL,0x034F4EA70373C115ULL,0x037E73CB033011ACULL,
  0x033FACA302A0BC09ULL,0x03A49D04028F3D4EULL,0x038B233A02F5D3E3ULL,0x0402BFA003020F0EULL,0x03565D8A03297977ULL,0x0409654302B87E44ULL,0x02C55A5C039FE61AULL,0x02C666210325C590ULL,
  0x036ACDBF02C191EBULL,0x034A437303B0953BULL,0x032B0A2C0350786CULL,0x033B80470394DFB1ULL,0x037254F403C45170ULL,0x031E659602BCE2A3ULL,0x03945E4C03A3E023ULL,0x035540A00352DB5CULL,
  0x0331380102EC15C6ULL,0x0346BB4603506A25ULL,0x031C5FDA034010CCULL,0x02EBD070029CCC12ULL,0x026952E803487EEBULL,0x03D36D3502CBB276ULL,0x0326A780030EF75FULL,0x03363187033D6925ULL,
  0x02F4AF9B02C7CD2AULL,0x03767008033138C1ULL,0x034F9481032A662BULL,0x0300E47003192588ULL,0x0364E8890382AB11ULL,0x0333B30503DA341CULL,0x02F2FB1902A67081ULL,0x03E2DFEB02CAE8D5ULL,
  0x03495F4A03043768ULL,0x02C7044D03635700ULL,0x0337C3DD033199ECULL,0x0329BCE7036C56A5ULL,0x039559BD038DA6FFULL,0x0347C777026DA522ULL,0x0309DA360331522DULL,0x035FD9A9036760D3ULL,
};

static const uint64_t __blob_Sigmoid_285_activ_ROM0[] = {
  0x000000008AC20100ULL,
};

static const uint64_t __blob_Sigmoid_285_activ_ROM1[] = {
  0x0000F00000000000ULL,0x01000000F0000000ULL,0xF02BFEEF02D8EFF4ULL,0x0800F043FF000222ULL,0xE7001000F369F680ULL,0x08C0D000199AFAFCULL,0xF333E0BF05000800ULL,0x5AB4EE62A4E64B9AULL,
  0xE8EB1A3CFB919A02ULL,0x00000FE000000000ULL,0x000000000FE00000ULL,
};

static const uint64_t __blob_Quantize_291_2071_requantize_zero[] = {
  0x0000000000000000ULL,
};


static const uint64_t __blob_Conv2D_295_mul_scale_284[] = {
  0x21A3280C16BE120DULL,0x29CF2457144B6B85ULL,0x1E8C1C8C36F81A61ULL,0x270626B6319B29F0ULL,0x1CE9164251293A26ULL,0x22CA1C1310331FA7ULL,0x4AE1130D16C64BE6ULL,0x187830C5363016C5ULL,
  0x41E83A1E17B53E56ULL,0x33F238E131332D46ULL,0x3D091795635D20B1ULL,0x2A1C1DCE2B883F27ULL,0x4C5752252A043D83ULL,0x1E573C7E1A852CEEULL,0x528F1CC9436C2B47ULL,0x493619DC25393985ULL,
};

static const uint64_t __blob_Conv2D_295_off_bias_287[] = {
  0x04F3FE170430B8EDULL,0x0371155603B4F7BAULL,0x03D907E100B9C636ULL,0x03348FF404205C1CULL,0x01C8703203C196E7ULL,0x0354365B0387F0CFULL,0x02B0F61502CA65B3ULL,0x0331581803083735ULL,
  0x01E569720378AD2BULL,0x0411FDB9044CFB45ULL,0x03F6ACE103D7AD05ULL,0x0397C06A0395BDF9ULL,0x03EACD3001AF0C42ULL,0x022A9DC604DCBE07ULL,0x0359605003B42B97ULL,0x0423418C04343B42ULL,
  0x04886A7F02532AB1ULL,0x02B1B6BF02D36615ULL,0x0330080C026D3630ULL,0x029B7F9602906EDFULL,0x02E501E603AF6B79ULL,0x01D0CDFE05098035ULL,0x02E86AD6040E7F63ULL,0x0390B2A9043565CFULL,
  0x0461277F03676AFAULL,0x021B6F610172B225ULL,0x042816BD026CF625ULL,0x04DA39390474ED81ULL,0x03F3F2B8049566CDULL,0x01F37DF0045E18F9ULL,0x046DE82E01ECBD08ULL,0x02A07B5C04A4898EULL,
};

static const uint64_t __blob_Sigmoid_298_activ_ROM0[] = {
  0x000000004AC20100ULL,
};

static const uint64_t __blob_Sigmoid_298_activ_ROM1[] = {
  0x0068E00000000000ULL,0x02AB0555E1DF0274ULL,0xE312FD000800E214ULL,0x0555E26D01DE0444ULL,0xEA000AABE22C00ABULL,0xF4F0E4AB0AABEE3BULL,0xF800C966219A0000ULL,0x4A48FA3595EE5B00ULL,
  0xF1C31709FE8CA5F1ULL,
};

static const uint64_t __blob_Conv2D_304_mul_scale_293[] = {
  0x38862C0E0DCE1D56ULL,0x399A38DD2D8C2BC3ULL,0x237731F229B73582ULL,0x24250D69173743BBULL,0x294F2A3F2C012949ULL,0x24031C1A28D837B7ULL,0x4CED32B3257221E9ULL,0x39C231833F272B43ULL,
};

static const uint64_t __blob_Conv2D_304_off_bias_296[] = {
  0x0414CB8E0036DE71ULL,0x0019324700B0D2FFULL,0xFF63A72EFD880FBDULL,0x028FD921FFFDE726ULL,0xFE1BF820FE857FB1ULL,0x01C02AF601F07AA2ULL,0xFF4D5A0D00A1379BULL,0x01C9AC62034CB35AULL,
  0x02358577FCFD9198ULL,0x003890E7FE9246F1ULL,0x002B0CC6FC997A45ULL,0xFC85727AFF9A2364ULL,0x0268641B01551CDEULL,0x0009337300316A75ULL,0x016ADE770131B4CFULL,0x00EC07B5005A1E06ULL,
};

static const uint64_t __blob_Sigmoid_307_activ_ROM0[] = {
  0x00000000000000C0ULL,
};

static const uint64_t __blob_Sigmoid_307_activ_ROM1[] = {
  0x00B08E7D04A10009ULL,0x457B01C7BDF523FEULL,0xE694532C0277DE3AULL,0xFDB1E5A4572DFF30ULL,0x46B1FEADE1646776ULL,0x412A1C8DFF95038EULL,
};

static const uint64_t __blob_Conv2D_312_mul_scale_302[] = {
  0x359B30E31BF33357ULL,0x1A213730302F4068ULL,0x3CA22BF33A7A3798ULL,0x3E6D36C7350B2D61ULL,0x3A832F12318930C9ULL,0x3E003C332A611642ULL,0x17F3257132B03620ULL,0x209A356737AD3D5AULL,
};

static const uint64_t __blob_Conv2D_312_off_bias_305[] = {
  0x01326228FF44C721ULL,0x010590C4FFBECED0ULL,0xFEBA9EBAFE90F0D9ULL,0x02DF9BB2FE860ADBULL,0x003BA846FF5358EBULL,0xFFBF44AEFE44C62DULL,0xFE689986FE89689BULL,0xFF269C1F001CCF9EULL,
  0xFE3A7156FF099368ULL,0xFEC4601C00169E24ULL,0x006E548F0012E939ULL,0xFF626F7DFFB48C92ULL,0x0043D6C1005AB24CULL,0x013E17FD016C1F38ULL,0xFFB92165FE395BB0ULL,0x03B234D2FF479A6EULL,
};

static const uint64_t __blob_Sigmoid_315_activ_ROM0[] = {
  0x00000000000000C0ULL,
};

static const uint64_t __blob_Sigmoid_315_activ_ROM1[] = {
  0x0095B95310370092ULL,0x2C9102B2A68A0D2CULL,0x010546AB0555E156ULL,0xFD17FF63456EFB07ULL,0x0E77FF5B1A742F46ULL,0x7F0000000000564BULL,
};

static const uint64_t __blob_Conv2D_321_mul_scale_311[] = {
  0x62442F5057192227ULL,0x4A963BC0557422B2ULL,0x2A0926694A871EC9ULL,0x427128C634FA4EAEULL,0x2EB81B0360B12415ULL,0x3EC94D241DD74898ULL,0x2715171A305C2634ULL,0x2AAE5D6E166E3973ULL,
  0x46E956E9212D6388ULL,0x5D7222B45F4C59ACULL,0x17D322BB31795069ULL,0x5BEF313142E61E0BULL,0x209D1D0930FF5293ULL,0x2A4935B24FA35A37ULL,0x1D6030BE26CF4584ULL,0x652539167BA52E81ULL,
};

static const uint64_t __blob_Conv2D_321_off_bias_314[] = {
  0x0173D3A001898B18ULL,0xFFEFCD2501FD016AULL,0x02846A4402B861DFULL,0x0002AEF800A67104ULL,0x032DC9A200AAC833ULL,0x00DE304E025F8DECULL,0x02FDD72BFEAFEBBAULL,0x0058590D02769BE3ULL,
  0x00637A1101C63621ULL,0x01F4C7F40308B2DFULL,0x02B2450E01CAE4C8ULL,0x0117447C00053B63ULL,0x01A9CF6A029A069AULL,0x00B70706016DB1DDULL,0x01E17DD601E36224ULL,0x02BAF1D701AB1000ULL,
  0x01C84E1F005E5907ULL,0x01F51EE30249F7A2ULL,0x001CCCB201EBE15BULL,0x02179EC102370542ULL,0x0483E228018180BAULL,0x0142989A01726A47ULL,0x001D5C9902DCD3A8ULL,0x02635F290267C90EULL,
  0x03C1A4FB017C8E80ULL,0x015E2F6F0202BC58ULL,0x015DBABC02FE4B81ULL,0x018E437101306A4AULL,0x023CC7CC0112AB3CULL,0x011B6D0701226C9AULL,0x0163EC5F031C3B11ULL,0x0289D4B40236ED07ULL,
};

static const uint64_t __blob_Sigmoid_324_activ_ROM0[] = {
  0x000000000000C480ULL,
};

static const uint64_t __blob_Sigmoid_324_activ_ROM1[] = {
  0x00C2C00000000000ULL,0x0AEA00B0D4AA0FE8ULL,0xD7BF24CD0435CB6EULL,0xFF46D848284C0773ULL,0x7577F911D0624746ULL,0xC52E6755FA46BABAULL,0xFF87FAB53000FDDEULL,0x5062FCF426C60DCFULL,
  0x3F8000000000BB2EULL,
};

static const uint64_t __blob_Conv2D_362_mul_scale_365[] = {
  0x333D1AC53A901BDFULL,0x256D32551A8D242FULL,0x345F14A71EFF2BD5ULL,0x22821196213227D7ULL,0x56491863265B0F47ULL,0x135718CA161F2AE9ULL,0x09A32C881ABD16BBULL,0x16011339081E15FAULL,
  0x1C600C731B26111CULL,0x2B4918F41CBE1774ULL,0x1E54181A1C5F2BEFULL,0x21D428E321AC37C9ULL,0x341E15E121940E82ULL,0x35C51339119C12FAULL,0x28B0146116ED2582ULL,0x2F9B194033FD2283ULL,
};

static const uint64_t __blob_Conv2D_362_off_bias_368[] = {
  0x02F29F890248821FULL,0x0287924A01CFC67DULL,0x0233E0EA01BB9AD4ULL,0x01B56FB2013C4B17ULL,0x00EED17A022062FBULL,0x026EA47F013E7894ULL,0x01EAED2A025A3ACEULL,0x02A8463A035FA4E5ULL,
  0x02E891A8034C381CULL,0x00B85EC802F348A5ULL,0x01C871B601C49426ULL,0x03211D16018FC0D0ULL,0x01A8DEAA0290E969ULL,0x0252BA8401BA2983ULL,0x030401FD035DB951ULL,0x027101D402176AFCULL,
  0x016086E802524F90ULL,0x02635F89034D1F7EULL,0x01530D6E0243A263ULL,0x01DA030202325B7CULL,0x017F43D702306F1AULL,0x0250968F02E3B759ULL,0x02C55CD6016D4AF2ULL,0x03528DAE017A2607ULL,
  0x024DB88E033EE060ULL,0x02556B500109F867ULL,0x02D84DC6027A9F62ULL,0x019A2118021AD0DBULL,0x02B37D4B020DEC14ULL,0x02E8AF67025406C4ULL,0x015D4BF500587FAAULL,0x01F87EB801297A61ULL,
};

static const uint64_t __blob_Sigmoid_365_activ_ROM0[] = {
  0x000000004BC34100ULL,
};

static const uint64_t __blob_Sigmoid_365_activ_ROM1[] = {
  0x0000E00000000000ULL,0x04190125E0000000ULL,0xE21205000800E1F7ULL,0x1333E22E04000800ULL,0xFA660CCDE8EAEB9AULL,0xD1BA216C02D8E4D3ULL,0xF333B3C45239F8E4ULL,0x52ABF7779CC07266ULL,
  0xF0012126FD1DBA00ULL,0x00001FC000000000ULL,
};

static const uint64_t __blob_Conv2D_329_mul_scale_320[] = {
  0x25C220A42FFB4DA1ULL,0x33DD39F92ACA2015ULL,0x586F30F5277E683EULL,0x5D6F4C51271963D7ULL,0x241D313E339244CAULL,0x393D3AC72A363CB5ULL,0x6BFC556A4AD81F42ULL,0x2D9F1F71591D2F3FULL,
  0x360427C1580126E6ULL,0x24EE5B3929CC20C7ULL,0x72E6540721682CEFULL,0x190920B67B9C34D0ULL,0x691027861C36230EULL,0x46911EB63B031945ULL,0x7C852D9C253C2A7FULL,0x350E3A6C46453557ULL,
};

static const uint64_t __blob_Conv2D_329_off_bias_323[] = {
  0xFE87E30FFF4A8A1EULL,0xFEC96B33FF8EA0C1ULL,0xFEA305ECFE73059BULL,0xFEC534FFFED3F83CULL,0xFE9253CAFF20480CULL,0xFF23AD81FFE68DF9ULL,0xFF3FD105FF790D16ULL,0xFEC47348FE0F627CULL,
  0xFEF14048FF0B575CULL,0xFF318196009F7F7AULL,0xFE0D96C8FEBAE421ULL,0xFEDB18BEFF2E3F99ULL,0xFEDC6141010AE0A8ULL,0xFE8ADB7BFED34426ULL,0xFF762EF2FEC91C05ULL,0xFE50D8C2FED64AA0ULL,
  0xFEF9B6DEFEC05D45ULL,0xFDE425B1FF1647D7ULL,0xFF248F40FEA9FD4EULL,0xFEE2292AFE6A97EEULL,0xFFEA80D4FED7B64AULL,0xFEE8031EFF987EE6ULL,0xFF4C8C11FF884C5BULL,0xFE7265B6FE148FF0ULL,
  0xFD070DECFEA93FFCULL,0xFEAF047DFF071CE6ULL,0xFED0D6F5FEED540FULL,0xFF31E65C000CC5FFULL,0xFDC6859EFEE498B3ULL,0xFEE6421CFEAF4EF4ULL,0xFEA45154FE2EF56EULL,0xFECD436AFEF04399ULL,
};

static const uint64_t __blob_Sigmoid_332_activ_ROM0[] = {
  0x000000000D89C100ULL,
};

static const uint64_t __blob_Sigmoid_332_activ_ROM1[] = {
  0x0000E00000000000ULL,0x13000555E0400000ULL,0x1E73279A0CCD0241ULL,0x1D71204628660CCDULL,0x279A044446B34C33ULL,0x1C0D08CDE6662C02ULL,0xF7F71B8B08ABEAABULL,0x0415FD631BAA07AEULL,
  0x1FC0000000001CA7ULL,0x00001FC000000000ULL,0x000000001FC00000ULL,
};

static const uint64_t __blob_Conv2D_386_mul_scale_392[] = {
  0x326432A53C942934ULL,0x40B72BE21AA5499AULL,0x1ECD3F002A343441ULL,0x4C8F30572C1559E1ULL,0x4AE32D88201D2EF7ULL,0x440F39C41C233597ULL,0x42332C8228C22C56ULL,0x22266171221135C9ULL,
  0x50232E872AB4285DULL,0x3AB02BC52B0F5019ULL,0x3E702E293CF23172ULL,0x2ED929A554634538ULL,0x31CC376E20362D55ULL,0x2C534A3E47923F24ULL,0x20E73DC82B7F1E0EULL,0x326674A5313A4650ULL,
};

static const uint64_t __blob_Conv2D_386_off_bias_395[] = {
  0xFD795550FC05B42FULL,0xFD5F637DFD466E2BULL,0xFF22042AFC3E18E8ULL,0xFB801BF5FBF2E00FULL,0xFE15C49EFDE8B049ULL,0xFBED2BC0FD615A2DULL,0xFD4898FFFEA84A39ULL,0xFE13443CFC83AFB4ULL,
  0xFE9AF340FCADCE59ULL,0xFD67E7A7FDF39251ULL,0xFDAC17B8FE73E20EULL,0xFD4EEB75FD0FBE83ULL,0xFD18041BFC71E2C6ULL,0xFD66047AFDF2E41CULL,0xFBEB8A9DFCC6DCF6ULL,0xFD31D49FFD3E9778ULL,
  0xFDD22377FCD57460ULL,0xFCF13587FED220C3ULL,0xFE0C997DFD564DDDULL,0xFDEA8B84FDE26C65ULL,0xFD6A4443FC507D95ULL,0xFE031C48FCC32B41ULL,0xFCB44540FDC9F963ULL,0xFC88661BFCA0B8D5ULL,
  0xFD0DB0A1FDAE4654ULL,0xFCE7B7D2FBC4970BULL,0xFD084468FDB0B058ULL,0xFC5F3CC1FE143290ULL,0xFDC5EC73FE0250A0ULL,0xFD400B27FD960E25ULL,0xFD16DA3DFF20E6A3ULL,0xFCA179A1FD8F5D17ULL,
};

static const uint64_t __blob_Sigmoid_389_activ_ROM0[] = {
  0x0E0D0C0B0AC20100ULL,
};

static const uint64_t __blob_Sigmoid_389_activ_ROM1[] = {
  0x037FF12C00270000ULL,0x430020000EF90A58ULL,0x0B60060000007FC4ULL,0x20000EF807000000ULL,0xDB00E00063843B00ULL,0x1AF80B000000D35CULL,0xE00018600A000000ULL,0x00BBF75FF464E800ULL,
  0x0EBE0150FE6C0E93ULL,0x00000FE000000000ULL,0x000000000FE00000ULL,0x0000000000000FE0ULL,
};

static const uint64_t __blob_Conv2D_336_mul_scale_329[] = {
  0x306836593B3A3EFEULL,0x5EC339F8297E3B94ULL,0x47D461B85D593FE7ULL,0x3F55575434B448C3ULL,0x4C9330802E0538C6ULL,0x3D48449731C839F6ULL,0x30444B3B4F865441ULL,0x49BF6730529E2FAAULL,
  0x40E6351631944B7CULL,0x448C4AFC38293C36ULL,0x39EC35F8498F45D9ULL,0x37E742EF4C513ABDULL,0x52734ECC40476C9BULL,0x3FF1430843963924ULL,0x29E35F4B2FF52AFBULL,0x5CC64703350750A1ULL,
};

static const uint64_t __blob_Conv2D_336_off_bias_332[] = {
  0xFFE91C63FF7A5732ULL,0xFF973B4EFFF1065DULL,0x0002043EFF63F4ACULL,0xFF980482FF6F57D1ULL,0xFF7557F6FEF75E4DULL,0xFFE9247D00043BE3ULL,0xFFE4844300145904ULL,0xFF72F5D6FFFB6583ULL,
  0xFFB2C3CEFFD589BBULL,0xFF8956C4FFA115A8ULL,0xFF9F5500FFCBC4DFULL,0x002A0198FF7C4266ULL,0xFFC4D060FF669876ULL,0x003033F8FFDE6B3FULL,0xFF98ABD0FFC375F6ULL,0xFFEA3678FFBA89BDULL,
  0x002D2E6FFF8408C9ULL,0xFF8A2E48FF49CF06ULL,0xFFC5A291000BB902ULL,0xFFD07DBFFFB6CE5FULL,0xFF6C74D5FFAEF172ULL,0xFF5055F4FFB6B080ULL,0x0002223EFF4D1D40ULL,0xFFC16169FF8CA406ULL,
  0xFF5A60D7FF50BD9BULL,0xFF2D9F10FFE44FE3ULL,0xFFF4B0EEFF49C950ULL,0xFFC54617FFE50E35ULL,0xFFC900FD004D7793ULL,0xFFD48564FFD74458ULL,0x0023DE0BFFDA4D71ULL,0xFF8583250042E1EFULL,
};

static const uint64_t __blob_Sigmoid_339_activ_ROM0[] = {
  0x00000000000088C0ULL,
};

static const uint64_t __blob_Sigmoid_339_activ_ROM1[] = {
  0x0000C00000000000ULL,0x33250249C0000000ULL,0x026538C3030C0755ULL,0x0539D88E14440111ULL,0x6F000A00FF5646DBULL,0x0FF1575502AB149BULL,0xFE790F924EDBF6DBULL,0x000000002A1916C6ULL,
  0x3F80000000003F80ULL,
};


static const uint64_t __blob_Conv2D_370_mul_scale_374[] = {
  0x306615032F071679ULL,0x2CCB2E5528EC1E7BULL,0x307D256029363028ULL,0x2E0D2D0E1CA319F0ULL,0x466F4147395E1124ULL,0x272A29EA49101A48ULL,0x168527CB39A51D11ULL,0x3F0415D9570D199DULL,
  0x33C327D13A724781ULL,0x229D14F4410C42B5ULL,0x187218A826F749E8ULL,0x116225C1362D2482ULL,0x1EC620130FA01E3AULL,0x40D1108C18B5150DULL,0x215821941C8917F5ULL,0x2F190F8D58001BD5ULL,
};

static const uint64_t __blob_Conv2D_370_off_bias_377[] = {
  0xFF686B86000668B3ULL,0xFEC5FF75002B21AFULL,0x006A6613004BA4CBULL,0x0024C208FFC246B7ULL,0x0005E051009782A3ULL,0x0005A437FFEC407BULL,0x004001B10031AFB8ULL,0xFFB2F996FFFA9693ULL,
  0x004863EF0004A906ULL,0xFEF673F7002CD710ULL,0x003DF6CE00313F55ULL,0x0040D75B001C6EB6ULL,0xFEA22262FFF0DDD6ULL,0x005D21FD0003051FULL,0x004961340003FADCULL,0xFFF4D1BB0022BB7FULL,
  0xFFBD185C00355234ULL,0x004992BEFFBF78F6ULL,0xFF508B50FF21E620ULL,0x000CEFD50024717EULL,0x003693410012EE1DULL,0x00445B26001FC065ULL,0xFFEE3C12FFE40021ULL,0x005C7D410015994BULL,
  0x0034914400433B29ULL,0x00154F53FFEAFB43ULL,0x0059F9F40009822FULL,0xFFFAC1BB00362D60ULL,0x00486CDA0042C2C2ULL,0xFFB41AC1FFB6BC5FULL,0x00399B03003F2A49ULL,0x00418DA2008A2E5BULL,
};

static const uint64_t __blob_Sigmoid_373_activ_ROM0[] = {
  0x11100F8BC3020100ULL,
};

static const uint64_t __blob_Sigmoid_373_activ_ROM1[] = {
  0x0000C00000000000ULL,0x027600C2C0000000ULL,0x39103E002000C7C9ULL,0x2000CF8004000000ULL,0x3000200011903200ULL,0x24A04C0040000C70ULL,0x00001E6048004000ULL,0x2C0000000E002800ULL,
  0x0FDA2C00CCCD1080ULL,0xF800169A1F33E666ULL,0x05DEFD28285C0D80ULL,0x3F8000000000339FULL,0x00003F8000000000ULL,0x000000003F800000ULL,
};

static const uint64_t __blob_Conv2D_394_mul_scale_401[] = {
  0x1C5C289A27FB2B33ULL,0x1DD024B41F9D337BULL,0x25AD27F125872B95ULL,0x45CA207324021D9CULL,0x23E033F523CC2ED5ULL,0x59C5293223B523DCULL,0x257A300E1DC91AB9ULL,0x19301DDC2E052CF9ULL,
  0x35D52AE62FF823BFULL,0x27D5282A2C382240ULL,0x2CBE29052089240AULL,0x235B28762B981E6AULL,0x4BCA231F20782A3EULL,0x2D5B4128313D3500ULL,0x430F2ECA203B29DEULL,0x45001C6A26F0451EULL,
  0x47832D80500021A3ULL,0x360839BA1FAE1C5FULL,0x484D27EC31F23F6FULL,0x31834C5429F1373EULL,0x562442263F1A3093ULL,0x2CEC305A2A7F224EULL,0x277246202CD0375AULL,0x20B624BA585826C9ULL,
  0x2B462FB04B8E2EFDULL,0x278E4011512B3D4DULL,0x0E431E5035D728BDULL,0x4B2D19704C7028E2ULL,0x1A462B2926E3312FULL,0x265D256839EA52F6ULL,0x33D13C3743E14274ULL,0x341C4AB15B042A85ULL,
};

static const uint64_t __blob_Conv2D_394_off_bias_404[] = {
  0xFFA0CF900009BD10ULL,0xFF43E555FF403490ULL,0xFF40B764FF6DAB1AULL,0xFF235959FEC32D6AULL,0x00716E43FF3F3E5EULL,0xFF662366FF45700CULL,0xFFD09343FF412947ULL,0xFEEDED5AFF80322FULL,
  0xFF667DA1FF0544BFULL,0xFEF45A96FF62A764ULL,0xFEEBF41EFF00F25EULL,0xFFF4E6DAFF5EEDB2ULL,0x0064E77BFF550749ULL,0xFF8552EFFE17569BULL,0xFF3647CEFF0D5A7DULL,0xFFA3435BFF6A5B8BULL,
  0xFECC6CBEFF230A5CULL,0xFF00DCE8FFFB6A20ULL,0xFEC59B91FF6BC2E8ULL,0xFF765377FF6D558AULL,0xFF41CF26FF9130D0ULL,0xFEBCD144FFAD8B4CULL,0xFF676111FFD34C6EULL,0xFFA8BF94FF03BA3BULL,
  0xFFD72A83FF6CCEBCULL,0x004D54A3FF0A2683ULL,0xFE935EADFDE2A272ULL,0x0028DC2DFF1A7E55ULL,0xFFA04172FF6BEC3FULL,0x00528EFAFF15DE7FULL,0xFF79369CFFB53B04ULL,0xFF05D76AFF34E478ULL,
  0x003EF4C3FF3B9B4AULL,0xFF49DE20FEBD3D71ULL,0x0040890A00E20A1FULL,0xFF6CECD3FF7F19F3ULL,0xFE7F54D9FF22E113ULL,0x0071EE37FEF35176ULL,0xFF39440DFFFAD7F9ULL,0xFFA8CD010048E595ULL,
  0x00831859FF6CD7DCULL,0x0048519D007B46E6ULL,0xFF15678EFFFCF467ULL,0xFF8832AC00457302ULL,0xFF3612A9FFD27B3FULL,0x000EBF17FFF12BA6ULL,0x001A2236004DCA7EULL,0xFF899CF5FFF7AD9BULL,
  0x0068D0CCFF6E03E9ULL,0xFF8E45C9FEF569D2ULL,0x00A1A960FFE5DB4AULL,0x006517DDFEC91ED8ULL,0x003E2900FF471DC9ULL,0x01103377FF9F7A22ULL,0x000830ACFF0B0723ULL,0xFF78737600389937ULL,
  0xFF1DEB07FE87828CULL,0x00AA7342FFAD18F3ULL,0xFF80361F0032764DULL,0xFF8C936FFF91C0C7ULL,0xFFAFD02AFF7B7840ULL,0xFEFCB52FFF6983F7ULL,0xFED7ACDC001F6F78ULL,0xFF48804AFFFB50CFULL,
};

static const uint64_t __blob_Sigmoid_397_activ_ROM0[] = {
  0x000000000000C8C0ULL,
};

static const uint64_t __blob_Sigmoid_397_activ_ROM1[] = {
  0x0000C00000000000ULL,0x00000000C0000000ULL,0xF00B2A000249C000ULL,0x030CCB5D09EA008CULL,0x68330AEFE2222800ULL,0x06A26BE70985033DULL,0xF75D05D468ABF2ABULL,0x1C44FDDE0DEC4FCFULL,
  0x18522BCFFCF427CDULL,0x00003F8000000000ULL,0x000000003F800000ULL,0x3F80000000003F80ULL,
};

static const uint64_t __blob_Conv2D_344_mul_scale_338[] = {
  0x1F482F6B2AE81CE7ULL,0x2DF51A85252F192BULL,0x3A8B3489188C17DAULL,0x181320E222BD3BCDULL,0x2DF73BF03A702824ULL,0x25C93DBC18291802ULL,0x3130198C38841327ULL,0x24CD1AB9283453CDULL,
  0x1C0A28373EF83BB8ULL,0x35342E94529E2BDFULL,0x1DC037E0166F2E41ULL,0x23432D6B266D3D62ULL,0x15FB3A570F2D25EBULL,0x42EB3E541F711CD0ULL,0x193A270635672E47ULL,0x3E2D2CFC2A1224B2ULL,
};

static const uint64_t __blob_Conv2D_344_off_bias_341[] = {
  0xFEEEABF6FEE43FF6ULL,0xFEAB5B35FE7AFD3BULL,0xFF1B843BFF130D31ULL,0xFE97BBA3FF05429CULL,0xFE9A9D33FEA8B3A2ULL,0xFEE900C6FE9DAC83ULL,0xFE90AD53FF31AE26ULL,0xFEB2886FFEA184D5ULL,
  0xFEBBE12AFE976E3BULL,0xFEE0F916FEDCAED5ULL,0xFEB7472DFE9C10CDULL,0xFED4E33AFED5204DULL,0xFEB3D50EFE9A61DAULL,0xFE694013FE80DA8AULL,0xFE970767FED6236DULL,0xFEE13FCCFEAA3168ULL,
  0xFE95BAFDFED1CC51ULL,0xFF12B0E8FEF14D2AULL,0xFE8F10FDFE78664AULL,0xFEC90DA9FEDD570AULL,0xFF0C43EEFEA9D2ADULL,0xFEEBDB63FEC4C7B9ULL,0xFEBFDB01FEAB4832ULL,0xFEED7355FEA51937ULL,
  0xFF07D571FEDCD6D9ULL,0xFF0EC59FFE9D484DULL,0xFEB67B6BFEF2D164ULL,0xFF07F8BCFEE24742ULL,0xFEEE973EFF6005D9ULL,0xFE8DB32DFE84879EULL,0xFE7E7669FE94993CULL,0xFEAA7D08FF0ABA0FULL,
};

static const uint64_t __blob_Sigmoid_347_activ_ROM0[] = {
  0x000000000D89C100ULL,
};

static const uint64_t __blob_Sigmoid_347_activ_ROM1[] = {
  0x02D8E27E00D90023ULL,0x0FDE0444F8570BBCULL,0x1AA523000AABFDFEULL,0x199A411843001800ULL,0x2155000044CD4666ULL,0x1C7D0A14EB8529ABULL,0xF7461B300500E000ULL,0x04DBFCF41B800817ULL,
  0x1FC0000000001BF8ULL,0x00001FC000000000ULL,0x000000001FC00000ULL,
};

static const uint64_t __blob_Conv2D_377_mul_scale_383[] = {
  0x4FEC48CF3A5B3D76ULL,0x3693450750DE4B04ULL,0x287527A026DC2F19ULL,0x23C624D5259327C8ULL,0x49AA3C9B38604E42ULL,0x3CF847E947984E2BULL,0x288C2AA42E1C34A3ULL,0x253D26D62744284DULL,
  0x5EBD46D444153D82ULL,0x3ED044C2567F5651ULL,0x305C316533B13550ULL,0x2B7F2C4F2D1E2D63ULL,0x4E084535376E4FE1ULL,0x34FF3EFE48DB47BBULL,0x2BAD29CF26462C7DULL,0x22AC26B927042A9EULL,
};

static const uint64_t __blob_Conv2D_377_off_bias_386[] = {
  0x03EB227703E59807ULL,0x03C0DC9C03E2BB8DULL,0x0405362C03FFB120ULL,0x0387A8C403C48841ULL,0x034A5114036B6A72ULL,0x02D9E4DF031B4273ULL,0x02A004B802D9B6CEULL,0x02E77FFB0293C7C6ULL,
  0x03FC4B6703EE2874ULL,0x03EEE0BC03EC5FD0ULL,0x03E3FCCD03E06522ULL,0x03A9892903D2D25FULL,0x033D5BB20373BD6EULL,0x02EEE80E030E23A9ULL,0x02AEDC6802C1CF1EULL,0x02DEFAC6029B7614ULL,
  0x03F4F79B0400658BULL,0x03F3891103E3CC43ULL,0x03EF990103F27259ULL,0x0395F48003D35AEDULL,0x031F92A503604003ULL,0x02E76ED902FBC19DULL,0x02BF9C9302CA8DD6ULL,0x02E137AC029287D4ULL,
  0x03FE9EA90413E30CULL,0x03F8B6F603F5AF4EULL,0x03AFF8D603F40FF9ULL,0x03877A7703908301ULL,0x032C71FA035F9366ULL,0x02F7C9A2030D7227ULL,0x02C728C002E29F80ULL,0x02F0F15B029ABE9FULL,
};

static const uint64_t __blob_Conv2D_351_mul_scale_347[] = {
  0x604B361534AC38CAULL,0x4697408D45453AA5ULL,0x461140204E732E2AULL,0x2FBB2C6E51543CEBULL,0x41A63E6838684323ULL,0x31C24C0C41523D2CULL,0x43AA2E9833BC6127ULL,0x4349387D3D164DCCULL,
  0x405F4B53470B4C5BULL,0x324C35BA4A9A6E03ULL,0x37C639B43C255ED8ULL,0x2F873729389A3E0FULL,0x30AB34C1392F4773ULL,0x3D9C3E1C4A473E67ULL,0x4A4649A257A23C27ULL,0x4BFD376125CE33D9ULL,
};

static const uint64_t __blob_Conv2D_351_off_bias_350[] = {
  0x00292A0200187FF2ULL,0x00333268FFD32D4AULL,0xFF6B0341003F2989ULL,0x003FE91F003EF111ULL,0x00675902FFE26BC5ULL,0x002662F5FF73A9BFULL,0x0006E22D008BB2D1ULL,0x001766200014BFBFULL,
  0xFFD7841000279599ULL,0xFF2831A6000CCDA3ULL,0x0034CC41002A7F5FULL,0x00526504FFABB74FULL,0x007279B8009625F2ULL,0x002C577AFFD61346ULL,0x004C75B70023B661ULL,0x00170CDD0010D4C3ULL,
  0x006E2EF90050B5CDULL,0xFFCBFCF300103700ULL,0x00ADE7D7001AB67EULL,0xFFDEB38FFF885F50ULL,0x0030B056007C2C46ULL,0x0037C334000BB14EULL,0x001BE89100191784ULL,0x0039B02B0041BA8FULL,
  0x0029631F005800C3ULL,0xFFED90F9002EA1C9ULL,0x001A55D6006E86FDULL,0xFF7C45DF00938236ULL,0x0066BBD4FF8AA972ULL,0x00281D0F001AD9CFULL,0xFFFE1120000C064FULL,0x008342A2003AC1D9ULL,
};

static const uint64_t __blob_Sigmoid_354_activ_ROM0[] = {
  0x00000000000088C0ULL,
};

static const uint64_t __blob_Sigmoid_354_activ_ROM1[] = {
  0x0000C00000000000ULL,0x00000000C0000000ULL,0x8583CA49FCF4C000ULL,0x0400D8C216AB0155ULL,0x6B1C0AABEFC03600ULL,0x088E5DC7060B0AA4ULL,0xFE5608655814F63FULL,0x00000000280518E4ULL,
  0x3F80000000003F80ULL,
};

static const uint64_t __blob_Conv2D_403_mul_scale_410[] = {
  0x27C22FDA2F9E1A08ULL,0x2BDD383124AA34FFULL,0x22DD2E983CA826C3ULL,0x1D3630FC20F13493ULL,0x222A24003E7624C2ULL,0x27A9203115CD0702ULL,0x2A43231E1F571E41ULL,0x2BE82A4D4015177FULL,
  0x105A21F11E9C256EULL,0x1A3E2FA32D8C3509ULL,0x25A023B7305F2D1DULL,0x21CD21E11B50206FULL,0x19A148FB2AD91552ULL,0x33F81E4B1C46204EULL,0x25B223351DEC3038ULL,0x22332AAE37953546ULL,
};

static const uint64_t __blob_Conv2D_403_off_bias_413[] = {
  0x009D83FD010F139CULL,0x007B07450107234FULL,0x0020075CFFEA2E94ULL,0x0030A2CB00AD42B6ULL,0x0093B93B017E8D14ULL,0x022B40D1006C236CULL,0x00B1D5E300F6EE5EULL,0x00AF2E490105AF8FULL,
  0x011D4BAE00D64301ULL,0x01D3A5720165C2B4ULL,0x01ADA147034BFB04ULL,0x01E9252200A10B86ULL,0x00D00C0B01D0D0F9ULL,0xFFE35D410107307DULL,0x0023E4A5013E8844ULL,0x009F90590107BB3FULL,
  0x00D525D9005099E5ULL,0x019CC9D60163BBE9ULL,0x00E720DF005910D3ULL,0x00968A6601B07AE9ULL,0x0068B73D00735982ULL,0x00C0D9B900F9B6B2ULL,0xFFF99515011B18CBULL,0x0015A4D20157C8CBULL,
  0x006CA1630101D883ULL,0x00C8C03900B244DAULL,0x0166ED5301A5282FULL,0x0251B5E400044025ULL,0x009CAC8200E8BD96ULL,0x00B895EC005C5BA7ULL,0x012289E300FB865EULL,0x00A3A0F30033EB58ULL,
};

static const uint64_t __blob_Sigmoid_406_activ_ROM0[] = {
  0x000000000000C480ULL,
};

static const uint64_t __blob_Sigmoid_406_activ_ROM1[] = {
  0x0009C00000000000ULL,0x0D0300CDC39501ACULL,0xD8DF23B503DECDF7ULL,0x0000D92A28A4051FULL,0x7000F99AD3473E39ULL,0xCB84599EFB7ABA90ULL,0xFE9F0D521C00FF16ULL,0x01C7000007D722BBULL,
  0x3F80000000003947ULL,
};

static const uint64_t __blob_Conv2D_358_mul_scale_356[] = {
  0x0000000000005371ULL,
};

static const uint64_t __blob_Conv2D_358_off_bias_359[] = {
  0x000000000000F8CFULL,
};

static const uint64_t __blob_Conv2D_411_mul_scale_419[] = {
  0x1AD91AC51F9D232DULL,0x1C0917CB13C61012ULL,0x131434B808F71C6AULL,0x19B7300A19A51765ULL,0x160C1669145726E3ULL,0x1E431BE118931CA6ULL,0x2E8A11B934DC1EF4ULL,0x231A2C4C1D6C18C1ULL,
  0x1DFD20D321AC1CF9ULL,0x15E648451E3811E2ULL,0x18D624841EC11A8EULL,0x277518B222302C7EULL,0x29D5181913CD1E5FULL,0x14241DC0242E18ECULL,0x19CA18551D0E1E04ULL,0x1B841F991EC91F6EULL,
};

static const uint64_t __blob_Conv2D_411_off_bias_422[] = {
  0x00B2DA5601128A4EULL,0xFFD3614A00CF0482ULL,0x016D2CCB01969151ULL,0x00AE79F1012DA3BCULL,0x0254AD120036E72FULL,0x0256FEA8FF2D6B94ULL,0x003D647600944F86ULL,0x01A610D400641999ULL,
  0x015CCFF5017C8190ULL,0x01E60B63009D63B8ULL,0x00A6A8FC0181961EULL,0xFED0DB8901DAF4BAULL,0xFEC12C93019F34F3ULL,0xFFB64970011EA9BCULL,0x00F787F100F2D588ULL,0x00C38EF601B352CAULL,
  0x01EE9098021263D9ULL,0x007566D5FFBB6701ULL,0x02A2C02300875ABFULL,0x007F2E54FF356A56ULL,0x00D8AADCFFCF9748ULL,0x01609083FF66D05AULL,0x0269866900C52DB8ULL,0x00073DD000B49FEEULL,
  0x025D5455007AC576ULL,0xFFC5E23701D8A2FFULL,0x01B2B48F01D9E2A1ULL,0x01B2D59E004B9835ULL,0x0184102401025C47ULL,0x00B0802D025FD6BAULL,0xFFFA1F50017AC798ULL,0x0091D692012D8FCEULL,
};

static const uint64_t __blob_Sigmoid_414_activ_ROM0[] = {
  0x000000000000C8C0ULL,
};

static const uint64_t __blob_Sigmoid_414_activ_ROM1[] = {
  0x0000C00000000000ULL,0x00000000C0000000ULL,0xC00000000000C000ULL,0x0000C00000000000ULL,0x079601AAC22500ABULL,0xCF74132907A6C97CULL,0xFAE1CFAC14550D55ULL,0x55A2F3B3B86E3D71ULL,
  0xE4462AF1FAD9A469ULL,0x00002DB405F5FF87ULL,0x000000003F800000ULL,0x3F80000000003F80ULL,
};


static const uint64_t __blob_Conv2D_420_mul_scale_428[] = {
  0x0DDF2D2D2E93466CULL,0x119316E01F9F0E54ULL,0x1C73241922CA14DBULL,0x2F1A0B8012C81ACDULL,0x12991E3511EC26B2ULL,0x10D41118145C15D5ULL,0x0EBA150613B31D07ULL,0x2C36378E0D1A13B3ULL,
  0x24D110742DDB331CULL,0x105A2A1124850BA0ULL,0x09DD384929D22159ULL,0x0ABC292E1D970BC8ULL,0x19FB138016662C66ULL,0x1F761D050BBD0DA1ULL,0x065F2E0A1DCF3FA6ULL,0x310F10DA1450156EULL,
  0x14CC234E12142ACCULL,0x0E9A20DF143D0DE2ULL,0x0B78213A18221866ULL,0x18F12805091A068FULL,0x12550F1B14EA2EE8ULL,0x33B5198212523253ULL,0x180D17EF24B85E10ULL,0x09410B6A19FF1723ULL,
  0x1BF9290C19CD1990ULL,0x20F3092F0E944399ULL,0x14111ACF2C532BAFULL,0x0F57272016681A66ULL,0x0C032B400F552BD8ULL,0x18080C6B0D490B9FULL,0x0909097817D80CD3ULL,0x180907A92CD31FEBULL,
};

static const uint64_t __blob_Conv2D_420_off_bias_431[] = {
  0x012CB9FB00CD2FD4ULL,0x0162B2EB01C0FA08ULL,0x0126B2A300723F4FULL,0x00DB6A74007712E0ULL,0x00C8FA5D0131FD26ULL,0x010CC15200D50019ULL,0x0095DABC020C3803ULL,0x00804B090160F4B4ULL,
  0x0113C84B010E7E14ULL,0x01FE327F0109C6D9ULL,0x013D5DBA00B95E02ULL,0x008DFD57024ED8ECULL,0x00FB4E80023C24E1ULL,0x00DCCF3B0111524BULL,0x00B397BA018C3C35ULL,0xFEFF265C0117DCFEULL,
  0x016C918C01620AE8ULL,0x01056063011C7EF6ULL,0x007E452301441AA7ULL,0x017B4D0501359ECCULL,0x0122DC9500D8A83CULL,0x00E5256F00D46014ULL,0x01B3A9AB01617649ULL,0x0298FA6600C92101ULL,
  0x011FAD95010D9F0EULL,0x0176B8CF012B302FULL,0x00E0891C011AE17CULL,0x0118EEEE00EEFBCDULL,0x0118BFC000D7516AULL,0x01B5E97900BBED0CULL,0x01383D7E01391A7DULL,0x000EAFA200550549ULL,
  0x00FAABB60120CBE8ULL,0x0120AD8F00E02A62ULL,0x00FC10C600F8BD26ULL,0x00F9CC9E0146F84EULL,0x00E2CFF500B4AC28ULL,0x01B39DEB013FDA56ULL,0x0151668D012EC8FAULL,0x014838F201B3BC1FULL,
  0x00C9DCDA013D7A6FULL,0x01559169013A1ECBULL,0x010381F20107A519ULL,0x00DB021801C9E9C4ULL,0x015CE9E4012C8216ULL,0x014CB447011AE968ULL,0x00B5A30100C4B08AULL,0x01D5AC870131BD8AULL,
  0xFF8A0320FFFC4769ULL,0x0159EE6E01158A8EULL,0x00DB74CDFFEA18DFULL,0x0153C7F1012B9970ULL,0x00EC02BF015C78EAULL,0x0131551D01199B91ULL,0x00837D2300EF9A89ULL,0x01842F0901817DABULL,
  0x00ED0BD80197807AULL,0x01DFF510015735E2ULL,0x00C90FA801541239ULL,0x008BCF0201013515ULL,0x0244F13000E3F852ULL,0x0164E20600F0A11AULL,0x01DD3AD900EF2CA1ULL,0x00DD86A801A688E4ULL,
};

static const uint64_t __blob_Sigmoid_423_activ_ROM0[] = {
  0x000000000D89C100ULL,
};

static const uint64_t __blob_Sigmoid_423_activ_ROM1[] = {
  0x0000C00000000000ULL,0x00000000C0000000ULL,0x8424D400F800C000ULL,0x0000D3E10EEF02D8ULL,0x04000000C5100200ULL,0xD3B31C000CCDC820ULL,0x0C31D0E617330CCDULL,0x33CBFD82D0771555ULL,
  0xA36955A2F3B3C05BULL,0xFFA3E5B92973FB1AULL,0x0000000030FB04AAULL,
};

static const uint64_t __blob_Conv2D_428_mul_scale_437[] = {
  0x1F530AFE10170CECULL,0x2A2E284C1D5B2DA5ULL,0x11AB0A83149315B4ULL,0x092815C626620BFCULL,0x12F00F2D2B120DAEULL,0x298F086219CE378FULL,0x358625F72D7E0D37ULL,0x15B00AF52F440FECULL,
  0x07F925EB08F9074DULL,0x1CBE155B1BAD19C4ULL,0x316A08C910F810B5ULL,0x0B3E0E0C0CE62CA1ULL,0x0F711BFF0D6B1858ULL,0x128917B525D51473ULL,0x19320E4B096B0BF1ULL,0x178658DE19120F0CULL,
  0x12DD10511D0A0B99ULL,0x2050116D1A622836ULL,0x11AE0AA313D32D1AULL,0x0DAB135D139F383DULL,0x129614E21E9D075FULL,0x138515A620E20C3EULL,0x104E11A20EBE115AULL,0x1D391CAF1A2E1054ULL,
  0x11EA0FF527C42165ULL,0x08761E4D33111502ULL,0x16301BB314020CB5ULL,0x173E07991FE31CB3ULL,0x0C8F079C347608B9ULL,0x200F2A94292818CCULL,0x1B8C27230B1F16BDULL,0x208D2DA10E3D1207ULL,
};

static const uint64_t __blob_Conv2D_428_off_bias_440[] = {
  0xFEC94CE6FFA369ACULL,0xFF255988FF3BB6A9ULL,0xFF3BB512FE39783FULL,0xFF3C4314006002D8ULL,0xFF2A4DBBFF561DE8ULL,0xFF6E43B4FF3D2883ULL,0x0039A99CFF7500B8ULL,0xFF5CC567FFB4A643ULL,
  0xFF53772FFF5ACA0CULL,0xFEF4CFEFFF3AB020ULL,0xFF253EE4FE8FFA8BULL,0x0054F296FF6D15EAULL,0xFF9C874600C028FCULL,0xFEBA0186FF0C0522ULL,0xFFD22EFEFEA501A1ULL,0xFF6B3DF7FF2439F6ULL,
  0xFF75A26DFF30D4ACULL,0xFF44587CFF7B4FABULL,0xFF6AEBD8FF56B8A3ULL,0xFF661521FF2C9A04ULL,0xFF31569FFF519E3EULL,0xFF400000FF6F3582ULL,0xFE9F892FFF30C5C2ULL,0xFF8BA9ADFF2B9527ULL,
  0xFF4CC84DFF3E7D5EULL,0xFF4DF5A0FEE9C868ULL,0x00151283FF68AF8DULL,0xFF3BBAB2FF088964ULL,0xFF47231AFF0A0862ULL,0xFE3CAAB5FF39DB63ULL,0xFF6AA7DFFF37CCAAULL,0x002C47D10053A4F5ULL,
  0xFF1D41C0FF319CE5ULL,0xFF80C69AFF1B5866ULL,0xFED10E30FF1458C8ULL,0x00084F71FF1F7D6FULL,0xFF2A0A5FFE648FF4ULL,0x00410571FF70671AULL,0xFF370B5CFF53AFC3ULL,0xFF2BB5A7FF3D82F8ULL,
  0xFF2C5490FF3EA930ULL,0xFF46576DFEBAC2B3ULL,0xFF4F9746FF334DEFULL,0xFF5C063FFFEEF681ULL,0xFF3DA5F7FEEB6D5FULL,0xFF3FED81FF3BDBDEULL,0xFF41DB23FF63CFF0ULL,0xFE1CCB38FEFE2A5FULL,
  0x003C24EE008C80ACULL,0xFF5F6F40FF6B68FCULL,0xFE84A2A0FF79B614ULL,0xFF1BDD30FFAABED1ULL,0xFF0C510DFF35EBE9ULL,0xFF52F9A3FF9452EBULL,0xFFBC57E1FF71FAB0ULL,0x0008EDF1FF45A7C6ULL,
  0xFFB29AE9FED31B0FULL,0xFE0E57A0FF39C327ULL,0x001E4BDAFF6F06F6ULL,0xFF6FDF73FFB8EFFCULL,0xFE8DB369FFC2DEB1ULL,0xFF7A18F3FFF403AFULL,0xFF00B85BFF4D7F9FULL,0xFFF5265FFF701ED9ULL,
};

static const uint64_t __blob_Sigmoid_431_activ_ROM0[] = {
  0x000000000000C8C0ULL,
};

static const uint64_t __blob_Sigmoid_431_activ_ROM1[] = {
  0x0000C00000000000ULL,0x00000000C0000000ULL,0x01E51C62030CC000ULL,0x0755D68A0AA40148ULL,0x5C9212490BCE2E6BULL,0x258A2AE9F70D3CA5ULL,0xFD2825462374F174ULL,0x0D63FD63308B0CFAULL,
  0x3F80000000002E88ULL,0x00003F8000000000ULL,0x000000003F800000ULL,0x3F80000000003F80ULL,
};

static const uint64_t __blob_Conv2D_461_mul_scale_482[] = {
  0x4DD1379F238F2422ULL,0x391E3E0948D61CE3ULL,0x20E2441727B42110ULL,0x2FBB2A8C32E427A3ULL,0x289930712EBA1E7DULL,0x15C61F5D3FF44150ULL,0x2CFD199245881D15ULL,0x1633247429ED1CC5ULL,
  0x266D293A1DCF0B38ULL,0x290513A22D1E306BULL,0x20982E4236542A15ULL,0x18CC14324246272AULL,0x18851E0F425F2E22ULL,0x47DD44AB1B3C3427ULL,0x2EDD1B735E81299CULL,0x218133F32D8A25A5ULL,
};

static const uint64_t __blob_Conv2D_461_off_bias_485[] = {
  0x004F70F9013922F6ULL,0xFFDC3F2A012A01BDULL,0x0072A02F00DAE652ULL,0xFE2EF9A900C8E120ULL,0x00D3928D00A178CFULL,0xFFB94839FF35D344ULL,0x00B61A36FFCFAD64ULL,0x00C9D28700D0EB07ULL,
  0x001A4EFF00A175A1ULL,0x00BCDBA2007CB999ULL,0xFF98CB850088E7FDULL,0xFFC2A672006A84C1ULL,0x006BF11400C2D1A0ULL,0x00ADF20E0149FE69ULL,0x003F029600970290ULL,0x0011A98900BDFEBBULL,
  0x00FB266200FE5E0DULL,0x00889BC7FFF71A77ULL,0x004A7404000039B8ULL,0x00F33FA3004B838CULL,0xFF7E11FF001B4D27ULL,0x00744A6400E26D6CULL,0xFFF792C300C4DC4EULL,0x00835FC90129A909ULL,
  0x00CB7B8100EF31C9ULL,0xFFE250A5FFB0D98DULL,0x002F2FC4003BFA9DULL,0x006FE17500517F41ULL,0xFF5B27A800443961ULL,0x004838B20049D0BCULL,0x00271E5700840888ULL,0x00984D53FF7C75D1ULL,
};

static const uint64_t __blob_Sigmoid_464_activ_ROM0[] = {
  0x000000000DC58100ULL,
};

static const uint64_t __blob_Sigmoid_464_activ_ROM1[] = {
  0x0249C00000000000ULL,0x05CD00DFDD55106EULL,0xDB8D182E05B0C9D7ULL,0x0CCDE6142C840FADULL,0x3A66FBBCE64D2D9AULL,0xDB904E00F000E404ULL,0xFAABF51C3100F800ULL,0x10ABFDDE06D822ABULL,
  0x20ED1022FDDE1FA0ULL,0x0000CF243C00F800ULL,0x000000003F800000ULL,
};

static const uint64_t __blob_Conv2D_485_mul_scale_509[] = {
  0x2933213156842878ULL,0x38D533103086329BULL,0x18013C8747A2360AULL,0x26E219F331EE3801ULL,0x388D34E144AC36D7ULL,0x2040385036553931ULL,0x3A6B2BEB3BDC3AE6ULL,0x42291EB610BD1F93ULL,
  0x2A8435E3208A28A5ULL,0x2CF4247130B21E05ULL,0x2BD12DCA1A991C95ULL,0x45B94590573058B5ULL,0x1A9A23431AE62867ULL,0x4D472EBE3A3F1D57ULL,0x175F2012319336BCULL,0x1AEF27D538BA4DF8ULL,
  0x54A12E1357C766CAULL,0x325C40662B894542ULL,0x227C39541BDE2F12ULL,0x26D51EDD41E93247ULL,0x30674527218A4E8AULL,0x22EF21D9543E326EULL,0x19702F1637441F88ULL,0x26D9336824921665ULL,
  0x298335883D1B472AULL,0x320C289A51B41C6EULL,0x474969333CE04932ULL,0x4FE72B0C1DC71A29ULL,0x4FC143D32A122F89ULL,0x1F8D33FF2DA31FAEULL,0x2BA948492A8C3A06ULL,0x392120332CA635DBULL,
};

static const uint64_t __blob_Conv2D_485_off_bias_512[] = {
  0xFE32A466FF82FF28ULL,0xFEE3E0ADFEA4E977ULL,0xFF2EDD22FF21428BULL,0xFF694BD1FF964C80ULL,0xFF0643F9FEAEDEC1ULL,0xFE4DED54FEAEF467ULL,0xFE3BEEE3FE5288A1ULL,0xFF45E480FF3DDB9AULL,
  0x00143B86FE2F244CULL,0xFE9B56F7FF15FD50ULL,0xFE99F569FEDFC8BFULL,0xFED6D83BFF3A8E79ULL,0xFF0E214EFF1278AEULL,0xFEE92728001FCA2CULL,0x00059482000A4CE6ULL,0xFEFEDB1DFFE2E813ULL,
  0xFEE3D77FFED649A6ULL,0xFE98310EFF8F22C5ULL,0xFF8716FD005280BDULL,0x0049C5B50041FEEBULL,0xFF635E99FF145D0BULL,0xFEBA9FA9FE609204ULL,0xFFCEB9E0FF7216AFULL,0xFEB7D03AFECFCFD1ULL,
  0x00B7BDD4FE6A9E05ULL,0xFF6AD74B0012DCA4ULL,0x00E3B706FEE43C77ULL,0x00891B4EFECAE0FBULL,0xFF528006FED161B9ULL,0xFF9DE2C700204844ULL,0xFF3895ADFEE03016ULL,0xFF61A9F6FEB561FEULL,
  0xFE3CF0C1FD55B644ULL,0xFFE884B4FF32AE4BULL,0x006BD54F00309D58ULL,0xFF30368FFF24DECAULL,0xFECD61C3FF0E6486ULL,0x0018B88CFE35FADDULL,0xFF005571FEE80417ULL,0xFECA639FFF8E1C00ULL,
  0xFE7ED5B2FD842B22ULL,0xFFF97F32FF98F859ULL,0xFFCB2C09FEA5DFC8ULL,0xFF5159EAFD46A0B4ULL,0xFF686385FEAD44AAULL,0xFFB8688D000CA4F7ULL,0xFF2C3F8AFFD847ADULL,0xFF2164D6003AE4C0ULL,
  0xFDDF2FF5FE43339DULL,0xFEB2C13AFED98EF8ULL,0xFFCE817A007F1211ULL,0xFF88F9E5FF38F847ULL,0xFD0C3364FFFB15D6ULL,0xFF131AD6FDD470F6ULL,0xFF8B9CEFFFAD25FEULL,0xFFE1762CFE6E0740ULL,
  0xFE36237EFFF73736ULL,0x000BFBD0FF212D71ULL,0xFE5122A9FE2F80D4ULL,0xFF32BA4CFF7C226EULL,0xFF1FC1AAFFC81534ULL,0xFED4582FFE5C30EAULL,0xFFEFE708FF3797FFULL,0xFF787A9AFED5F917ULL,
};

static const uint64_t __blob_Sigmoid_488_activ_ROM0[] = {
  0x00000000000088C0ULL,
};

static const uint64_t __blob_Sigmoid_488_activ_ROM1[] = {
  0x0000C00000000000ULL,0x00000000C0000000ULL,0xD05E0A9D006FC080ULL,0x054AE905220F01D4ULL,0x6000080006564A2FULL,0x0AF44777018D115CULL,0xFE180ABE46D5F93EULL,0x0E81FF4C1F991ED4ULL,
  0x3F80000000002D04ULL,
};


static const uint64_t __blob_Conv2D_435_mul_scale_446[] = {
  0x531742EC47562C4DULL,0x27194B273C92485AULL,0x5E2A41B640E441B5ULL,0x43A9320848EA3E95ULL,0x33415943465146ACULL,0x48CA37AD633B2C26ULL,0x344235753B006078ULL,0x3D3B3A15416D4285ULL,
  0x43893B8B3A81548EULL,0x5827572835123859ULL,0x42C4351F49E845BDULL,0x4D104431423F47EFULL,0x40DE383847093F10ULL,0x410E37272FB83FD9ULL,0x36DB3D2C3CEB55C4ULL,0x3C57350546B648B3ULL,
};

static const uint64_t __blob_Conv2D_435_off_bias_449[] = {
  0xFE8F9A65FEAC1A4DULL,0xFE8099A2FEE90D41ULL,0xFF595887FED4BF65ULL,0xFF4F57CFFEB9F459ULL,0xFEC5694EFEE380B9ULL,0xFEEA49F5FEA6BC50ULL,0xFECF11EDFF3654B3ULL,0xFEB04608FF24D171ULL,
  0xFED74377FE7D6BA2ULL,0xFF395BBDFF4D364FULL,0xFEA51BD3FF277BDAULL,0xFF4FDC9AFEC2D595ULL,0xFEB3C82BFEA941B8ULL,0xFF1FA372FE741B06ULL,0xFEFCE950FF121678ULL,0xFEAB4287FEEFAFB6ULL,
